{
  "version": "1.0",
  "truncation": null,
  "padding": null,
  "added_tokens": [
    {
      "id": 16128,
      "content": "<|pad|>",
      "single_word": false,
      "lstrip": false,
      "rstrip": false,
      "normalized": false,
      "special": true
    },
    {
      "id": 16129,
      "content": "<|unk|>",
      "single_word": false,
      "lstrip": false,
      "rstrip": false,
      "normalized": false,
      "special": true
    },
    {
      "id": 16130,
      "content": "<|bos|>",
      "single_word": false,
      "lstrip": false,
      "rstrip": false,
      "normalized": false,
      "special": true
    },
    {
      "id": 16131,
      "content": "<|eos|>",
      "single_word": false,
      "lstrip": false,
      "rstrip": false,
      "normalized": false,
      "special": true
    },
    {
      "id": 16132,
      "content": "<|sep|>",
      "single_word": false,
      "lstrip": false,
      "rstrip": false,
      "normalized": false,
      "special": true
    },
    {
      "id": 16133,
      "content": "<|reserved_5|>",
      "single_word": false,
      "lstrip": false,
      "rstrip": false,
      "normalized": false,
      "special": true
    },
    {
      "id": 16134,
      "content": "<|reserved_6|>",
      "single_word": false,
      "lstrip": false,
      "rstrip": false,
      "normalized": false,
      "special": true
    },
    {
      "id": 16135,
      "content": "<|reserved_7|>",
      "single_word": false,
      "lstrip": false,
      "rstrip": false,
      "normalized": false,
      "special": true
    },
    {
      "id": 16136,
      "content": "<|reserved_8|>",
      "single_word": false,
      "lstrip": false,
      "rstrip": false,
      "normalized": false,
      "special": true
    },
    {
      "id": 16137,
      "content": "<|reserved_9|>",
      "single_word": false,
      "lstrip": false,
      "rstrip": false,
      "normalized": false,
      "special": true
    },
    {
      "id": 16138,
      "content": "<|reserved_10|>",
      "single_word": false,
      "lstrip": false,
      "rstrip": false,
      "normalized": false,
      "special": true
    },
    {
      "id": 16139,
      "content": "<|reserved_11|>",
      "single_word": false,
      "lstrip": false,
      "rstrip": false,
      "normalized": false,
      "special": true
    },
    {
      "id": 16140,
      "content": "<|reserved_12|>",
      "single_word": false,
      "lstrip": false,
      "rstrip": false,
      "normalized": false,
      "special": true
    },
    {
      "id": 16141,
      "content": "<|reserved_13|>",
      "single_word": false,
      "lstrip": false,
      "rstrip": false,
      "normalized": false,
      "special": true
    },
    {
      "id": 16142,
      "content": "<|reserved_14|>",
      "single_word": false,
      "lstrip": false,
      "rstrip": false,
      "normalized": false,
      "special": true
    },
    {
      "id": 16143,
      "content": "<|reserved_15|>",
      "single_word": false,
      "lstrip": false,
      "rstrip": false,
      "normalized": false,
      "special": true
    },
    {
      "id": 16144,
      "content": "<|im_start|>",
      "single_word": false,
      "lstrip": false,
      "rstrip": false,
      "normalized": false,
      "special": true
    },
    {
      "id": 16145,
      "content": "<|im_end|>",
      "single_word": false,
      "lstrip": false,
      "rstrip": false,
      "normalized": false,
      "special": true
    },
    {
      "id": 16146,
      "content": "<|system|>",
      "single_word": false,
      "lstrip": false,
      "rstrip": false,
      "normalized": false,
      "special": true
    },
    {
      "id": 16147,
      "content": "<|user|>",
      "single_word": false,
      "lstrip": false,
      "rstrip": false,
      "normalized": false,
      "special": true
    },
    {
      "id": 16148,
      "content": "<|assistant|>",
      "single_word": false,
      "lstrip": false,
      "rstrip": false,
      "normalized": false,
      "special": true
    },
    {
      "id": 16149,
      "content": "<|tool|>",
      "single_word": false,
      "lstrip": false,
      "rstrip": false,
      "normalized": false,
      "special": true
    },
    {
      "id": 16150,
      "content": "<|tool_call|>",
      "single_word": false,
      "lstrip": false,
      "rstrip": false,
      "normalized": false,
      "special": true
    },
    {
      "id": 16151,
      "content": "<|tool_result|>",
      "single_word": false,
      "lstrip": false,
      "rstrip": false,
      "normalized": false,
      "special": true
    },
    {
      "id": 16152,
      "content": "<|reserved_24|>",
      "single_word": false,
      "lstrip": false,
      "rstrip": false,
      "normalized": false,
      "special": true
    },
    {
      "id": 16153,
      "content": "<|reserved_25|>",
      "single_word": false,
      "lstrip": false,
      "rstrip": false,
      "normalized": false,
      "special": true
    },
    {
      "id": 16154,
      "content": "<|reserved_26|>",
      "single_word": false,
      "lstrip": false,
      "rstrip": false,
      "normalized": false,
      "special": true
    },
    {
      "id": 16155,
      "content": "<|reserved_27|>",
      "single_word": false,
      "lstrip": false,
      "rstrip": false,
      "normalized": false,
      "special": true
    },
    {
      "id": 16156,
      "content": "<|reserved_28|>",
      "single_word": false,
      "lstrip": false,
      "rstrip": false,
      "normalized": false,
      "special": true
    },
    {
      "id": 16157,
      "content": "<|reserved_29|>",
      "single_word": false,
      "lstrip": false,
      "rstrip": false,
      "normalized": false,
      "special": true
    },
    {
      "id": 16158,
      "content": "<|reserved_30|>",
      "single_word": false,
      "lstrip": false,
      "rstrip": false,
      "normalized": false,
      "special": true
    },
    {
      "id": 16159,
      "content": "<|reserved_31|>",
      "single_word": false,
      "lstrip": false,
      "rstrip": false,
      "normalized": false,
      "special": true
    },
    {
      "id": 16160,
      "content": "<|img_start|>",
      "single_word": false,
      "lstrip": false,
      "rstrip": false,
      "normalized": false,
      "special": true
    },
    {
      "id": 16161,
      "content": "<|img_end|>",
      "single_word": false,
      "lstrip": false,
      "rstrip": false,
      "normalized": false,
      "special": true
    },
    {
      "id": 16162,
      "content": "<|img_pad|>",
      "single_word": false,
      "lstrip": false,
      "rstrip": false,
      "normalized": false,
      "special": true
    },
    {
      "id": 16163,
      "content": "<|img_row_sep|>",
      "single_word": false,
      "lstrip": false,
      "rstrip": false,
      "normalized": false,
      "special": true
    },
    {
      "id": 16164,
      "content": "<|reserved_36|>",
      "single_word": false,
      "lstrip": false,
      "rstrip": false,
      "normalized": false,
      "special": true
    },
    {
      "id": 16165,
      "content": "<|reserved_37|>",
      "single_word": false,
      "lstrip": false,
      "rstrip": false,
      "normalized": false,
      "special": true
    },
    {
      "id": 16166,
      "content": "<|reserved_38|>",
      "single_word": false,
      "lstrip": false,
      "rstrip": false,
      "normalized": false,
      "special": true
    },
    {
      "id": 16167,
      "content": "<|reserved_39|>",
      "single_word": false,
      "lstrip": false,
      "rstrip": false,
      "normalized": false,
      "special": true
    },
    {
      "id": 16168,
      "content": "<|reserved_40|>",
      "single_word": false,
      "lstrip": false,
      "rstrip": false,
      "normalized": false,
      "special": true
    },
    {
      "id": 16169,
      "content": "<|reserved_41|>",
      "single_word": false,
      "lstrip": false,
      "rstrip": false,
      "normalized": false,
      "special": true
    },
    {
      "id": 16170,
      "content": "<|reserved_42|>",
      "single_word": false,
      "lstrip": false,
      "rstrip": false,
      "normalized": false,
      "special": true
    },
    {
      "id": 16171,
      "content": "<|reserved_43|>",
      "single_word": false,
      "lstrip": false,
      "rstrip": false,
      "normalized": false,
      "special": true
    },
    {
      "id": 16172,
      "content": "<|reserved_44|>",
      "single_word": false,
      "lstrip": false,
      "rstrip": false,
      "normalized": false,
      "special": true
    },
    {
      "id": 16173,
      "content": "<|reserved_45|>",
      "single_word": false,
      "lstrip": false,
      "rstrip": false,
      "normalized": false,
      "special": true
    },
    {
      "id": 16174,
      "content": "<|reserved_46|>",
      "single_word": false,
      "lstrip": false,
      "rstrip": false,
      "normalized": false,
      "special": true
    },
    {
      "id": 16175,
      "content": "<|reserved_47|>",
      "single_word": false,
      "lstrip": false,
      "rstrip": false,
      "normalized": false,
      "special": true
    },
    {
      "id": 16176,
      "content": "<|reserved_48|>",
      "single_word": false,
      "lstrip": false,
      "rstrip": false,
      "normalized": false,
      "special": true
    },
    {
      "id": 16177,
      "content": "<|reserved_49|>",
      "single_word": false,
      "lstrip": false,
      "rstrip": false,
      "normalized": false,
      "special": true
    },
    {
      "id": 16178,
      "content": "<|reserved_50|>",
      "single_word": false,
      "lstrip": false,
      "rstrip": false,
      "normalized": false,
      "special": true
    },
    {
      "id": 16179,
      "content": "<|reserved_51|>",
      "single_word": false,
      "lstrip": false,
      "rstrip": false,
      "normalized": false,
      "special": true
    },
    {
      "id": 16180,
      "content": "<|reserved_52|>",
      "single_word": false,
      "lstrip": false,
      "rstrip": false,
      "normalized": false,
      "special": true
    },
    {
      "id": 16181,
      "content": "<|reserved_53|>",
      "single_word": false,
      "lstrip": false,
      "rstrip": false,
      "normalized": false,
      "special": true
    },
    {
      "id": 16182,
      "content": "<|reserved_54|>",
      "single_word": false,
      "lstrip": false,
      "rstrip": false,
      "normalized": false,
      "special": true
    },
    {
      "id": 16183,
      "content": "<|reserved_55|>",
      "single_word": false,
      "lstrip": false,
      "rstrip": false,
      "normalized": false,
      "special": true
    },
    {
      "id": 16184,
      "content": "<|reserved_56|>",
      "single_word": false,
      "lstrip": false,
      "rstrip": false,
      "normalized": false,
      "special": true
    },
    {
      "id": 16185,
      "content": "<|reserved_57|>",
      "single_word": false,
      "lstrip": false,
      "rstrip": false,
      "normalized": false,
      "special": true
    },
    {
      "id": 16186,
      "content": "<|reserved_58|>",
      "single_word": false,
      "lstrip": false,
      "rstrip": false,
      "normalized": false,
      "special": true
    },
    {
      "id": 16187,
      "content": "<|reserved_59|>",
      "single_word": false,
      "lstrip": false,
      "rstrip": false,
      "normalized": false,
      "special": true
    },
    {
      "id": 16188,
      "content": "<|reserved_60|>",
      "single_word": false,
      "lstrip": false,
      "rstrip": false,
      "normalized": false,
      "special": true
    },
    {
      "id": 16189,
      "content": "<|reserved_61|>",
      "single_word": false,
      "lstrip": false,
      "rstrip": false,
      "normalized": false,
      "special": true
    },
    {
      "id": 16190,
      "content": "<|reserved_62|>",
      "single_word": false,
      "lstrip": false,
      "rstrip": false,
      "normalized": false,
      "special": true
    },
    {
      "id": 16191,
      "content": "<|reserved_63|>",
      "single_word": false,
      "lstrip": false,
      "rstrip": false,
      "normalized": false,
      "special": true
    },
    {
      "id": 16192,
      "content": "<|reserved_64|>",
      "single_word": false,
      "lstrip": false,
      "rstrip": false,
      "normalized": false,
      "special": true
    },
    {
      "id": 16193,
      "content": "<|reserved_65|>",
      "single_word": false,
      "lstrip": false,
      "rstrip": false,
      "normalized": false,
      "special": true
    },
    {
      "id": 16194,
      "content": "<|reserved_66|>",
      "single_word": false,
      "lstrip": false,
      "rstrip": false,
      "normalized": false,
      "special": true
    },
    {
      "id": 16195,
      "content": "<|reserved_67|>",
      "single_word": false,
      "lstrip": false,
      "rstrip": false,
      "normalized": false,
      "special": true
    },
    {
      "id": 16196,
      "content": "<|reserved_68|>",
      "single_word": false,
      "lstrip": false,
      "rstrip": false,
      "normalized": false,
      "special": true
    },
    {
      "id": 16197,
      "content": "<|reserved_69|>",
      "single_word": false,
      "lstrip": false,
      "rstrip": false,
      "normalized": false,
      "special": true
    },
    {
      "id": 16198,
      "content": "<|reserved_70|>",
      "single_word": false,
      "lstrip": false,
      "rstrip": false,
      "normalized": false,
      "special": true
    },
    {
      "id": 16199,
      "content": "<|reserved_71|>",
      "single_word": false,
      "lstrip": false,
      "rstrip": false,
      "normalized": false,
      "special": true
    },
    {
      "id": 16200,
      "content": "<|reserved_72|>",
      "single_word": false,
      "lstrip": false,
      "rstrip": false,
      "normalized": false,
      "special": true
    },
    {
      "id": 16201,
      "content": "<|reserved_73|>",
      "single_word": false,
      "lstrip": false,
      "rstrip": false,
      "normalized": false,
      "special": true
    },
    {
      "id": 16202,
      "content": "<|reserved_74|>",
      "single_word": false,
      "lstrip": false,
      "rstrip": false,
      "normalized": false,
      "special": true
    },
    {
      "id": 16203,
      "content": "<|reserved_75|>",
      "single_word": false,
      "lstrip": false,
      "rstrip": false,
      "normalized": false,
      "special": true
    },
    {
      "id": 16204,
      "content": "<|reserved_76|>",
      "single_word": false,
      "lstrip": false,
      "rstrip": false,
      "normalized": false,
      "special": true
    },
    {
      "id": 16205,
      "content": "<|reserved_77|>",
      "single_word": false,
      "lstrip": false,
      "rstrip": false,
      "normalized": false,
      "special": true
    },
    {
      "id": 16206,
      "content": "<|reserved_78|>",
      "single_word": false,
      "lstrip": false,
      "rstrip": false,
      "normalized": false,
      "special": true
    },
    {
      "id": 16207,
      "content": "<|reserved_79|>",
      "single_word": false,
      "lstrip": false,
      "rstrip": false,
      "normalized": false,
      "special": true
    },
    {
      "id": 16208,
      "content": "<|reserved_80|>",
      "single_word": false,
      "lstrip": false,
      "rstrip": false,
      "normalized": false,
      "special": true
    },
    {
      "id": 16209,
      "content": "<|reserved_81|>",
      "single_word": false,
      "lstrip": false,
      "rstrip": false,
      "normalized": false,
      "special": true
    },
    {
      "id": 16210,
      "content": "<|reserved_82|>",
      "single_word": false,
      "lstrip": false,
      "rstrip": false,
      "normalized": false,
      "special": true
    },
    {
      "id": 16211,
      "content": "<|reserved_83|>",
      "single_word": false,
      "lstrip": false,
      "rstrip": false,
      "normalized": false,
      "special": true
    },
    {
      "id": 16212,
      "content": "<|reserved_84|>",
      "single_word": false,
      "lstrip": false,
      "rstrip": false,
      "normalized": false,
      "special": true
    },
    {
      "id": 16213,
      "content": "<|reserved_85|>",
      "single_word": false,
      "lstrip": false,
      "rstrip": false,
      "normalized": false,
      "special": true
    },
    {
      "id": 16214,
      "content": "<|reserved_86|>",
      "single_word": false,
      "lstrip": false,
      "rstrip": false,
      "normalized": false,
      "special": true
    },
    {
      "id": 16215,
      "content": "<|reserved_87|>",
      "single_word": false,
      "lstrip": false,
      "rstrip": false,
      "normalized": false,
      "special": true
    },
    {
      "id": 16216,
      "content": "<|reserved_88|>",
      "single_word": false,
      "lstrip": false,
      "rstrip": false,
      "normalized": false,
      "special": true
    },
    {
      "id": 16217,
      "content": "<|reserved_89|>",
      "single_word": false,
      "lstrip": false,
      "rstrip": false,
      "normalized": false,
      "special": true
    },
    {
      "id": 16218,
      "content": "<|reserved_90|>",
      "single_word": false,
      "lstrip": false,
      "rstrip": false,
      "normalized": false,
      "special": true
    },
    {
      "id": 16219,
      "content": "<|reserved_91|>",
      "single_word": false,
      "lstrip": false,
      "rstrip": false,
      "normalized": false,
      "special": true
    },
    {
      "id": 16220,
      "content": "<|reserved_92|>",
      "single_word": false,
      "lstrip": false,
      "rstrip": false,
      "normalized": false,
      "special": true
    },
    {
      "id": 16221,
      "content": "<|reserved_93|>",
      "single_word": false,
      "lstrip": false,
      "rstrip": false,
      "normalized": false,
      "special": true
    },
    {
      "id": 16222,
      "content": "<|reserved_94|>",
      "single_word": false,
      "lstrip": false,
      "rstrip": false,
      "normalized": false,
      "special": true
    },
    {
      "id": 16223,
      "content": "<|reserved_95|>",
      "single_word": false,
      "lstrip": false,
      "rstrip": false,
      "normalized": false,
      "special": true
    },
    {
      "id": 16224,
      "content": "<|reserved_96|>",
      "single_word": false,
      "lstrip": false,
      "rstrip": false,
      "normalized": false,
      "special": true
    },
    {
      "id": 16225,
      "content": "<|reserved_97|>",
      "single_word": false,
      "lstrip": false,
      "rstrip": false,
      "normalized": false,
      "special": true
    },
    {
      "id": 16226,
      "content": "<|reserved_98|>",
      "single_word": false,
      "lstrip": false,
      "rstrip": false,
      "normalized": false,
      "special": true
    },
    {
      "id": 16227,
      "content": "<|reserved_99|>",
      "single_word": false,
      "lstrip": false,
      "rstrip": false,
      "normalized": false,
      "special": true
    },
    {
      "id": 16228,
      "content": "<|reserved_100|>",
      "single_word": false,
      "lstrip": false,
      "rstrip": false,
      "normalized": false,
      "special": true
    },
    {
      "id": 16229,
      "content": "<|reserved_101|>",
      "single_word": false,
      "lstrip": false,
      "rstrip": false,
      "normalized": false,
      "special": true
    },
    {
      "id": 16230,
      "content": "<|reserved_102|>",
      "single_word": false,
      "lstrip": false,
      "rstrip": false,
      "normalized": false,
      "special": true
    },
    {
      "id": 16231,
      "content": "<|reserved_103|>",
      "single_word": false,
      "lstrip": false,
      "rstrip": false,
      "normalized": false,
      "special": true
    },
    {
      "id": 16232,
      "content": "<|reserved_104|>",
      "single_word": false,
      "lstrip": false,
      "rstrip": false,
      "normalized": false,
      "special": true
    },
    {
      "id": 16233,
      "content": "<|reserved_105|>",
      "single_word": false,
      "lstrip": false,
      "rstrip": false,
      "normalized": false,
      "special": true
    },
    {
      "id": 16234,
      "content": "<|reserved_106|>",
      "single_word": false,
      "lstrip": false,
      "rstrip": false,
      "normalized": false,
      "special": true
    },
    {
      "id": 16235,
      "content": "<|reserved_107|>",
      "single_word": false,
      "lstrip": false,
      "rstrip": false,
      "normalized": false,
      "special": true
    },
    {
      "id": 16236,
      "content": "<|reserved_108|>",
      "single_word": false,
      "lstrip": false,
      "rstrip": false,
      "normalized": false,
      "special": true
    },
    {
      "id": 16237,
      "content": "<|reserved_109|>",
      "single_word": false,
      "lstrip": false,
      "rstrip": false,
      "normalized": false,
      "special": true
    },
    {
      "id": 16238,
      "content": "<|reserved_110|>",
      "single_word": false,
      "lstrip": false,
      "rstrip": false,
      "normalized": false,
      "special": true
    },
    {
      "id": 16239,
      "content": "<|reserved_111|>",
      "single_word": false,
      "lstrip": false,
      "rstrip": false,
      "normalized": false,
      "special": true
    },
    {
      "id": 16240,
      "content": "<|reserved_112|>",
      "single_word": false,
      "lstrip": false,
      "rstrip": false,
      "normalized": false,
      "special": true
    },
    {
      "id": 16241,
      "content": "<|reserved_113|>",
      "single_word": false,
      "lstrip": false,
      "rstrip": false,
      "normalized": false,
      "special": true
    },
    {
      "id": 16242,
      "content": "<|reserved_114|>",
      "single_word": false,
      "lstrip": false,
      "rstrip": false,
      "normalized": false,
      "special": true
    },
    {
      "id": 16243,
      "content": "<|reserved_115|>",
      "single_word": false,
      "lstrip": false,
      "rstrip": false,
      "normalized": false,
      "special": true
    },
    {
      "id": 16244,
      "content": "<|reserved_116|>",
      "single_word": false,
      "lstrip": false,
      "rstrip": false,
      "normalized": false,
      "special": true
    },
    {
      "id": 16245,
      "content": "<|reserved_117|>",
      "single_word": false,
      "lstrip": false,
      "rstrip": false,
      "normalized": false,
      "special": true
    },
    {
      "id": 16246,
      "content": "<|reserved_118|>",
      "single_word": false,
      "lstrip": false,
      "rstrip": false,
      "normalized": false,
      "special": true
    },
    {
      "id": 16247,
      "content": "<|reserved_119|>",
      "single_word": false,
      "lstrip": false,
      "rstrip": false,
      "normalized": false,
      "special": true
    },
    {
      "id": 16248,
      "content": "<|reserved_120|>",
      "single_word": false,
      "lstrip": false,
      "rstrip": false,
      "normalized": false,
      "special": true
    },
    {
      "id": 16249,
      "content": "<|reserved_121|>",
      "single_word": false,
      "lstrip": false,
      "rstrip": false,
      "normalized": false,
      "special": true
    },
    {
      "id": 16250,
      "content": "<|reserved_122|>",
      "single_word": false,
      "lstrip": false,
      "rstrip": false,
      "normalized": false,
      "special": true
    },
    {
      "id": 16251,
      "content": "<|reserved_123|>",
      "single_word": false,
      "lstrip": false,
      "rstrip": false,
      "normalized": false,
      "special": true
    },
    {
      "id": 16252,
      "content": "<|reserved_124|>",
      "single_word": false,
      "lstrip": false,
      "rstrip": false,
      "normalized": false,
      "special": true
    },
    {
      "id": 16253,
      "content": "<|reserved_125|>",
      "single_word": false,
      "lstrip": false,
      "rstrip": false,
      "normalized": false,
      "special": true
    },
    {
      "id": 16254,
      "content": "<|reserved_126|>",
      "single_word": false,
      "lstrip": false,
      "rstrip": false,
      "normalized": false,
      "special": true
    },
    {
      "id": 16255,
      "content": "<|reserved_127|>",
      "single_word": false,
      "lstrip": false,
      "rstrip": false,
      "normalized": false,
      "special": true
    },
    {
      "id": 16256,
      "content": "<|reserved_128|>",
      "single_word": false,
      "lstrip": false,
      "rstrip": false,
      "normalized": false,
      "special": true
    },
    {
      "id": 16257,
      "content": "<|reserved_129|>",
      "single_word": false,
      "lstrip": false,
      "rstrip": false,
      "normalized": false,
      "special": true
    },
    {
      "id": 16258,
      "content": "<|reserved_130|>",
      "single_word": false,
      "lstrip": false,
      "rstrip": false,
      "normalized": false,
      "special": true
    },
    {
      "id": 16259,
      "content": "<|reserved_131|>",
      "single_word": false,
      "lstrip": false,
      "rstrip": false,
      "normalized": false,
      "special": true
    },
    {
      "id": 16260,
      "content": "<|reserved_132|>",
      "single_word": false,
      "lstrip": false,
      "rstrip": false,
      "normalized": false,
      "special": true
    },
    {
      "id": 16261,
      "content": "<|reserved_133|>",
      "single_word": false,
      "lstrip": false,
      "rstrip": false,
      "normalized": false,
      "special": true
    },
    {
      "id": 16262,
      "content": "<|reserved_134|>",
      "single_word": false,
      "lstrip": false,
      "rstrip": false,
      "normalized": false,
      "special": true
    },
    {
      "id": 16263,
      "content": "<|reserved_135|>",
      "single_word": false,
      "lstrip": false,
      "rstrip": false,
      "normalized": false,
      "special": true
    },
    {
      "id": 16264,
      "content": "<|reserved_136|>",
      "single_word": false,
      "lstrip": false,
      "rstrip": false,
      "normalized": false,
      "special": true
    },
    {
      "id": 16265,
      "content": "<|reserved_137|>",
      "single_word": false,
      "lstrip": false,
      "rstrip": false,
      "normalized": false,
      "special": true
    },
    {
      "id": 16266,
      "content": "<|reserved_138|>",
      "single_word": false,
      "lstrip": false,
      "rstrip": false,
      "normalized": false,
      "special": true
    },
    {
      "id": 16267,
      "content": "<|reserved_139|>",
      "single_word": false,
      "lstrip": false,
      "rstrip": false,
      "normalized": false,
      "special": true
    },
    {
      "id": 16268,
      "content": "<|reserved_140|>",
      "single_word": false,
      "lstrip": false,
      "rstrip": false,
      "normalized": false,
      "special": true
    },
    {
      "id": 16269,
      "content": "<|reserved_141|>",
      "single_word": false,
      "lstrip": false,
      "rstrip": false,
      "normalized": false,
      "special": true
    },
    {
      "id": 16270,
      "content": "<|reserved_142|>",
      "single_word": false,
      "lstrip": false,
      "rstrip": false,
      "normalized": false,
      "special": true
    },
    {
      "id": 16271,
      "content": "<|reserved_143|>",
      "single_word": false,
      "lstrip": false,
      "rstrip": false,
      "normalized": false,
      "special": true
    },
    {
      "id": 16272,
      "content": "<|reserved_144|>",
      "single_word": false,
      "lstrip": false,
      "rstrip": false,
      "normalized": false,
      "special": true
    },
    {
      "id": 16273,
      "content": "<|reserved_145|>",
      "single_word": false,
      "lstrip": false,
      "rstrip": false,
      "normalized": false,
      "special": true
    },
    {
      "id": 16274,
      "content": "<|reserved_146|>",
      "single_word": false,
      "lstrip": false,
      "rstrip": false,
      "normalized": false,
      "special": true
    },
    {
      "id": 16275,
      "content": "<|reserved_147|>",
      "single_word": false,
      "lstrip": false,
      "rstrip": false,
      "normalized": false,
      "special": true
    },
    {
      "id": 16276,
      "content": "<|reserved_148|>",
      "single_word": false,
      "lstrip": false,
      "rstrip": false,
      "normalized": false,
      "special": true
    },
    {
      "id": 16277,
      "content": "<|reserved_149|>",
      "single_word": false,
      "lstrip": false,
      "rstrip": false,
      "normalized": false,
      "special": true
    },
    {
      "id": 16278,
      "content": "<|reserved_150|>",
      "single_word": false,
      "lstrip": false,
      "rstrip": false,
      "normalized": false,
      "special": true
    },
    {
      "id": 16279,
      "content": "<|reserved_151|>",
      "single_word": false,
      "lstrip": false,
      "rstrip": false,
      "normalized": false,
      "special": true
    },
    {
      "id": 16280,
      "content": "<|reserved_152|>",
      "single_word": false,
      "lstrip": false,
      "rstrip": false,
      "normalized": false,
      "special": true
    },
    {
      "id": 16281,
      "content": "<|reserved_153|>",
      "single_word": false,
      "lstrip": false,
      "rstrip": false,
      "normalized": false,
      "special": true
    },
    {
      "id": 16282,
      "content": "<|reserved_154|>",
      "single_word": false,
      "lstrip": false,
      "rstrip": false,
      "normalized": false,
      "special": true
    },
    {
      "id": 16283,
      "content": "<|reserved_155|>",
      "single_word": false,
      "lstrip": false,
      "rstrip": false,
      "normalized": false,
      "special": true
    },
    {
      "id": 16284,
      "content": "<|reserved_156|>",
      "single_word": false,
      "lstrip": false,
      "rstrip": false,
      "normalized": false,
      "special": true
    },
    {
      "id": 16285,
      "content": "<|reserved_157|>",
      "single_word": false,
      "lstrip": false,
      "rstrip": false,
      "normalized": false,
      "special": true
    },
    {
      "id": 16286,
      "content": "<|reserved_158|>",
      "single_word": false,
      "lstrip": false,
      "rstrip": false,
      "normalized": false,
      "special": true
    },
    {
      "id": 16287,
      "content": "<|reserved_159|>",
      "single_word": false,
      "lstrip": false,
      "rstrip": false,
      "normalized": false,
      "special": true
    },
    {
      "id": 16288,
      "content": "<|reserved_160|>",
      "single_word": false,
      "lstrip": false,
      "rstrip": false,
      "normalized": false,
      "special": true
    },
    {
      "id": 16289,
      "content": "<|reserved_161|>",
      "single_word": false,
      "lstrip": false,
      "rstrip": false,
      "normalized": false,
      "special": true
    },
    {
      "id": 16290,
      "content": "<|reserved_162|>",
      "single_word": false,
      "lstrip": false,
      "rstrip": false,
      "normalized": false,
      "special": true
    },
    {
      "id": 16291,
      "content": "<|reserved_163|>",
      "single_word": false,
      "lstrip": false,
      "rstrip": false,
      "normalized": false,
      "special": true
    },
    {
      "id": 16292,
      "content": "<|reserved_164|>",
      "single_word": false,
      "lstrip": false,
      "rstrip": false,
      "normalized": false,
      "special": true
    },
    {
      "id": 16293,
      "content": "<|reserved_165|>",
      "single_word": false,
      "lstrip": false,
      "rstrip": false,
      "normalized": false,
      "special": true
    },
    {
      "id": 16294,
      "content": "<|reserved_166|>",
      "single_word": false,
      "lstrip": false,
      "rstrip": false,
      "normalized": false,
      "special": true
    },
    {
      "id": 16295,
      "content": "<|reserved_167|>",
      "single_word": false,
      "lstrip": false,
      "rstrip": false,
      "normalized": false,
      "special": true
    },
    {
      "id": 16296,
      "content": "<|reserved_168|>",
      "single_word": false,
      "lstrip": false,
      "rstrip": false,
      "normalized": false,
      "special": true
    },
    {
      "id": 16297,
      "content": "<|reserved_169|>",
      "single_word": false,
      "lstrip": false,
      "rstrip": false,
      "normalized": false,
      "special": true
    },
    {
      "id": 16298,
      "content": "<|reserved_170|>",
      "single_word": false,
      "lstrip": false,
      "rstrip": false,
      "normalized": false,
      "special": true
    },
    {
      "id": 16299,
      "content": "<|reserved_171|>",
      "single_word": false,
      "lstrip": false,
      "rstrip": false,
      "normalized": false,
      "special": true
    },
    {
      "id": 16300,
      "content": "<|reserved_172|>",
      "single_word": false,
      "lstrip": false,
      "rstrip": false,
      "normalized": false,
      "special": true
    },
    {
      "id": 16301,
      "content": "<|reserved_173|>",
      "single_word": false,
      "lstrip": false,
      "rstrip": false,
      "normalized": false,
      "special": true
    },
    {
      "id": 16302,
      "content": "<|reserved_174|>",
      "single_word": false,
      "lstrip": false,
      "rstrip": false,
      "normalized": false,
      "special": true
    },
    {
      "id": 16303,
      "content": "<|reserved_175|>",
      "single_word": false,
      "lstrip": false,
      "rstrip": false,
      "normalized": false,
      "special": true
    },
    {
      "id": 16304,
      "content": "<|reserved_176|>",
      "single_word": false,
      "lstrip": false,
      "rstrip": false,
      "normalized": false,
      "special": true
    },
    {
      "id": 16305,
      "content": "<|reserved_177|>",
      "single_word": false,
      "lstrip": false,
      "rstrip": false,
      "normalized": false,
      "special": true
    },
    {
      "id": 16306,
      "content": "<|reserved_178|>",
      "single_word": false,
      "lstrip": false,
      "rstrip": false,
      "normalized": false,
      "special": true
    },
    {
      "id": 16307,
      "content": "<|reserved_179|>",
      "single_word": false,
      "lstrip": false,
      "rstrip": false,
      "normalized": false,
      "special": true
    },
    {
      "id": 16308,
      "content": "<|reserved_180|>",
      "single_word": false,
      "lstrip": false,
      "rstrip": false,
      "normalized": false,
      "special": true
    },
    {
      "id": 16309,
      "content": "<|reserved_181|>",
      "single_word": false,
      "lstrip": false,
      "rstrip": false,
      "normalized": false,
      "special": true
    },
    {
      "id": 16310,
      "content": "<|reserved_182|>",
      "single_word": false,
      "lstrip": false,
      "rstrip": false,
      "normalized": false,
      "special": true
    },
    {
      "id": 16311,
      "content": "<|reserved_183|>",
      "single_word": false,
      "lstrip": false,
      "rstrip": false,
      "normalized": false,
      "special": true
    },
    {
      "id": 16312,
      "content": "<|reserved_184|>",
      "single_word": false,
      "lstrip": false,
      "rstrip": false,
      "normalized": false,
      "special": true
    },
    {
      "id": 16313,
      "content": "<|reserved_185|>",
      "single_word": false,
      "lstrip": false,
      "rstrip": false,
      "normalized": false,
      "special": true
    },
    {
      "id": 16314,
      "content": "<|reserved_186|>",
      "single_word": false,
      "lstrip": false,
      "rstrip": false,
      "normalized": false,
      "special": true
    },
    {
      "id": 16315,
      "content": "<|reserved_187|>",
      "single_word": false,
      "lstrip": false,
      "rstrip": false,
      "normalized": false,
      "special": true
    },
    {
      "id": 16316,
      "content": "<|reserved_188|>",
      "single_word": false,
      "lstrip": false,
      "rstrip": false,
      "normalized": false,
      "special": true
    },
    {
      "id": 16317,
      "content": "<|reserved_189|>",
      "single_word": false,
      "lstrip": false,
      "rstrip": false,
      "normalized": false,
      "special": true
    },
    {
      "id": 16318,
      "content": "<|reserved_190|>",
      "single_word": false,
      "lstrip": false,
      "rstrip": false,
      "normalized": false,
      "special": true
    },
    {
      "id": 16319,
      "content": "<|reserved_191|>",
      "single_word": false,
      "lstrip": false,
      "rstrip": false,
      "normalized": false,
      "special": true
    },
    {
      "id": 16320,
      "content": "<|reserved_192|>",
      "single_word": false,
      "lstrip": false,
      "rstrip": false,
      "normalized": false,
      "special": true
    },
    {
      "id": 16321,
      "content": "<|reserved_193|>",
      "single_word": false,
      "lstrip": false,
      "rstrip": false,
      "normalized": false,
      "special": true
    },
    {
      "id": 16322,
      "content": "<|reserved_194|>",
      "single_word": false,
      "lstrip": false,
      "rstrip": false,
      "normalized": false,
      "special": true
    },
    {
      "id": 16323,
      "content": "<|reserved_195|>",
      "single_word": false,
      "lstrip": false,
      "rstrip": false,
      "normalized": false,
      "special": true
    },
    {
      "id": 16324,
      "content": "<|reserved_196|>",
      "single_word": false,
      "lstrip": false,
      "rstrip": false,
      "normalized": false,
      "special": true
    },
    {
      "id": 16325,
      "content": "<|reserved_197|>",
      "single_word": false,
      "lstrip": false,
      "rstrip": false,
      "normalized": false,
      "special": true
    },
    {
      "id": 16326,
      "content": "<|reserved_198|>",
      "single_word": false,
      "lstrip": false,
      "rstrip": false,
      "normalized": false,
      "special": true
    },
    {
      "id": 16327,
      "content": "<|reserved_199|>",
      "single_word": false,
      "lstrip": false,
      "rstrip": false,
      "normalized": false,
      "special": true
    },
    {
      "id": 16328,
      "content": "<|reserved_200|>",
      "single_word": false,
      "lstrip": false,
      "rstrip": false,
      "normalized": false,
      "special": true
    },
    {
      "id": 16329,
      "content": "<|reserved_201|>",
      "single_word": false,
      "lstrip": false,
      "rstrip": false,
      "normalized": false,
      "special": true
    },
    {
      "id": 16330,
      "content": "<|reserved_202|>",
      "single_word": false,
      "lstrip": false,
      "rstrip": false,
      "normalized": false,
      "special": true
    },
    {
      "id": 16331,
      "content": "<|reserved_203|>",
      "single_word": false,
      "lstrip": false,
      "rstrip": false,
      "normalized": false,
      "special": true
    },
    {
      "id": 16332,
      "content": "<|reserved_204|>",
      "single_word": false,
      "lstrip": false,
      "rstrip": false,
      "normalized": false,
      "special": true
    },
    {
      "id": 16333,
      "content": "<|reserved_205|>",
      "single_word": false,
      "lstrip": false,
      "rstrip": false,
      "normalized": false,
      "special": true
    },
    {
      "id": 16334,
      "content": "<|reserved_206|>",
      "single_word": false,
      "lstrip": false,
      "rstrip": false,
      "normalized": false,
      "special": true
    },
    {
      "id": 16335,
      "content": "<|reserved_207|>",
      "single_word": false,
      "lstrip": false,
      "rstrip": false,
      "normalized": false,
      "special": true
    },
    {
      "id": 16336,
      "content": "<|reserved_208|>",
      "single_word": false,
      "lstrip": false,
      "rstrip": false,
      "normalized": false,
      "special": true
    },
    {
      "id": 16337,
      "content": "<|reserved_209|>",
      "single_word": false,
      "lstrip": false,
      "rstrip": false,
      "normalized": false,
      "special": true
    },
    {
      "id": 16338,
      "content": "<|reserved_210|>",
      "single_word": false,
      "lstrip": false,
      "rstrip": false,
      "normalized": false,
      "special": true
    },
    {
      "id": 16339,
      "content": "<|reserved_211|>",
      "single_word": false,
      "lstrip": false,
      "rstrip": false,
      "normalized": false,
      "special": true
    },
    {
      "id": 16340,
      "content": "<|reserved_212|>",
      "single_word": false,
      "lstrip": false,
      "rstrip": false,
      "normalized": false,
      "special": true
    },
    {
      "id": 16341,
      "content": "<|reserved_213|>",
      "single_word": false,
      "lstrip": false,
      "rstrip": false,
      "normalized": false,
      "special": true
    },
    {
      "id": 16342,
      "content": "<|reserved_214|>",
      "single_word": false,
      "lstrip": false,
      "rstrip": false,
      "normalized": false,
      "special": true
    },
    {
      "id": 16343,
      "content": "<|reserved_215|>",
      "single_word": false,
      "lstrip": false,
      "rstrip": false,
      "normalized": false,
      "special": true
    },
    {
      "id": 16344,
      "content": "<|reserved_216|>",
      "single_word": false,
      "lstrip": false,
      "rstrip": false,
      "normalized": false,
      "special": true
    },
    {
      "id": 16345,
      "content": "<|reserved_217|>",
      "single_word": false,
      "lstrip": false,
      "rstrip": false,
      "normalized": false,
      "special": true
    },
    {
      "id": 16346,
      "content": "<|reserved_218|>",
      "single_word": false,
      "lstrip": false,
      "rstrip": false,
      "normalized": false,
      "special": true
    },
    {
      "id": 16347,
      "content": "<|reserved_219|>",
      "single_word": false,
      "lstrip": false,
      "rstrip": false,
      "normalized": false,
      "special": true
    },
    {
      "id": 16348,
      "content": "<|reserved_220|>",
      "single_word": false,
      "lstrip": false,
      "rstrip": false,
      "normalized": false,
      "special": true
    },
    {
      "id": 16349,
      "content": "<|reserved_221|>",
      "single_word": false,
      "lstrip": false,
      "rstrip": false,
      "normalized": false,
      "special": true
    },
    {
      "id": 16350,
      "content": "<|reserved_222|>",
      "single_word": false,
      "lstrip": false,
      "rstrip": false,
      "normalized": false,
      "special": true
    },
    {
      "id": 16351,
      "content": "<|reserved_223|>",
      "single_word": false,
      "lstrip": false,
      "rstrip": false,
      "normalized": false,
      "special": true
    },
    {
      "id": 16352,
      "content": "<|reserved_224|>",
      "single_word": false,
      "lstrip": false,
      "rstrip": false,
      "normalized": false,
      "special": true
    },
    {
      "id": 16353,
      "content": "<|reserved_225|>",
      "single_word": false,
      "lstrip": false,
      "rstrip": false,
      "normalized": false,
      "special": true
    },
    {
      "id": 16354,
      "content": "<|reserved_226|>",
      "single_word": false,
      "lstrip": false,
      "rstrip": false,
      "normalized": false,
      "special": true
    },
    {
      "id": 16355,
      "content": "<|reserved_227|>",
      "single_word": false,
      "lstrip": false,
      "rstrip": false,
      "normalized": false,
      "special": true
    },
    {
      "id": 16356,
      "content": "<|reserved_228|>",
      "single_word": false,
      "lstrip": false,
      "rstrip": false,
      "normalized": false,
      "special": true
    },
    {
      "id": 16357,
      "content": "<|reserved_229|>",
      "single_word": false,
      "lstrip": false,
      "rstrip": false,
      "normalized": false,
      "special": true
    },
    {
      "id": 16358,
      "content": "<|reserved_230|>",
      "single_word": false,
      "lstrip": false,
      "rstrip": false,
      "normalized": false,
      "special": true
    },
    {
      "id": 16359,
      "content": "<|reserved_231|>",
      "single_word": false,
      "lstrip": false,
      "rstrip": false,
      "normalized": false,
      "special": true
    },
    {
      "id": 16360,
      "content": "<|reserved_232|>",
      "single_word": false,
      "lstrip": false,
      "rstrip": false,
      "normalized": false,
      "special": true
    },
    {
      "id": 16361,
      "content": "<|reserved_233|>",
      "single_word": false,
      "lstrip": false,
      "rstrip": false,
      "normalized": false,
      "special": true
    },
    {
      "id": 16362,
      "content": "<|reserved_234|>",
      "single_word": false,
      "lstrip": false,
      "rstrip": false,
      "normalized": false,
      "special": true
    },
    {
      "id": 16363,
      "content": "<|reserved_235|>",
      "single_word": false,
      "lstrip": false,
      "rstrip": false,
      "normalized": false,
      "special": true
    },
    {
      "id": 16364,
      "content": "<|reserved_236|>",
      "single_word": false,
      "lstrip": false,
      "rstrip": false,
      "normalized": false,
      "special": true
    },
    {
      "id": 16365,
      "content": "<|reserved_237|>",
      "single_word": false,
      "lstrip": false,
      "rstrip": false,
      "normalized": false,
      "special": true
    },
    {
      "id": 16366,
      "content": "<|reserved_238|>",
      "single_word": false,
      "lstrip": false,
      "rstrip": false,
      "normalized": false,
      "special": true
    },
    {
      "id": 16367,
      "content": "<|reserved_239|>",
      "single_word": false,
      "lstrip": false,
      "rstrip": false,
      "normalized": false,
      "special": true
    },
    {
      "id": 16368,
      "content": "<|reserved_240|>",
      "single_word": false,
      "lstrip": false,
      "rstrip": false,
      "normalized": false,
      "special": true
    },
    {
      "id": 16369,
      "content": "<|reserved_241|>",
      "single_word": false,
      "lstrip": false,
      "rstrip": false,
      "normalized": false,
      "special": true
    },
    {
      "id": 16370,
      "content": "<|reserved_242|>",
      "single_word": false,
      "lstrip": false,
      "rstrip": false,
      "normalized": false,
      "special": true
    },
    {
      "id": 16371,
      "content": "<|reserved_243|>",
      "single_word": false,
      "lstrip": false,
      "rstrip": false,
      "normalized": false,
      "special": true
    },
    {
      "id": 16372,
      "content": "<|reserved_244|>",
      "single_word": false,
      "lstrip": false,
      "rstrip": false,
      "normalized": false,
      "special": true
    },
    {
      "id": 16373,
      "content": "<|reserved_245|>",
      "single_word": false,
      "lstrip": false,
      "rstrip": false,
      "normalized": false,
      "special": true
    },
    {
      "id": 16374,
      "content": "<|reserved_246|>",
      "single_word": false,
      "lstrip": false,
      "rstrip": false,
      "normalized": false,
      "special": true
    },
    {
      "id": 16375,
      "content": "<|reserved_247|>",
      "single_word": false,
      "lstrip": false,
      "rstrip": false,
      "normalized": false,
      "special": true
    },
    {
      "id": 16376,
      "content": "<|reserved_248|>",
      "single_word": false,
      "lstrip": false,
      "rstrip": false,
      "normalized": false,
      "special": true
    },
    {
      "id": 16377,
      "content": "<|reserved_249|>",
      "single_word": false,
      "lstrip": false,
      "rstrip": false,
      "normalized": false,
      "special": true
    },
    {
      "id": 16378,
      "content": "<|reserved_250|>",
      "single_word": false,
      "lstrip": false,
      "rstrip": false,
      "normalized": false,
      "special": true
    },
    {
      "id": 16379,
      "content": "<|reserved_251|>",
      "single_word": false,
      "lstrip": false,
      "rstrip": false,
      "normalized": false,
      "special": true
    },
    {
      "id": 16380,
      "content": "<|reserved_252|>",
      "single_word": false,
      "lstrip": false,
      "rstrip": false,
      "normalized": false,
      "special": true
    },
    {
      "id": 16381,
      "content": "<|reserved_253|>",
      "single_word": false,
      "lstrip": false,
      "rstrip": false,
      "normalized": false,
      "special": true
    },
    {
      "id": 16382,
      "content": "<|reserved_254|>",
      "single_word": false,
      "lstrip": false,
      "rstrip": false,
      "normalized": false,
      "special": true
    },
    {
      "id": 16383,
      "content": "<|reserved_255|>",
      "single_word": false,
      "lstrip": false,
      "rstrip": false,
      "normalized": false,
      "special": true
    }
  ],
  "normalizer": null,
  "pre_tokenizer": {
    "type": "Sequence",
    "pretokenizers": [
      {
        "type": "Split",
        "pattern": {
          "Regex": "\\d"
        },
        "behavior": "Isolated",
        "invert": false
      },
      {
        "type": "ByteLevel",
        "add_prefix_space": false,
        "trim_offsets": true,
        "use_regex": true
      }
    ]
  },
  "post_processor": {
    "type": "TemplateProcessing",
    "single": [
      {
        "Sequence": {
          "id": "A",
          "type_id": 0
        }
      }
    ],
    "pair": [
      {
        "Sequence": {
          "id": "A",
          "type_id": 0
        }
      },
      {
        "Sequence": {
          "id": "B",
          "type_id": 1
        }
      }
    ],
    "special_tokens": {
      "<|bos|>": {
        "id": "<|bos|>",
        "ids": [
          16130
        ],
        "tokens": [
          "<|bos|>"
        ]
      },
      "<|eos|>": {
        "id": "<|eos|>",
        "ids": [
          16131
        ],
        "tokens": [
          "<|eos|>"
        ]
      }
    }
  },
  "decoder": {
    "type": "ByteLevel",
    "add_prefix_space": true,
    "trim_offsets": true,
    "use_regex": true
  },
  "model": {
    "type": "BPE",
    "dropout": null,
    "unk_token": "<|unk|>",
    "continuing_subword_prefix": null,
    "end_of_word_suffix": null,
    "fuse_unk": false,
    "byte_fallback": false,
    "ignore_merges": false,
    "vocab": {
      "!": 0,
      "\"": 1,
      "#": 2,
      "$": 3,
      "%": 4,
      "&": 5,
      "'": 6,
      "(": 7,
      ")": 8,
      "*": 9,
      "+": 10,
      ",": 11,
      "-": 12,
      ".": 13,
      "/": 14,
      "0": 15,
      "1": 16,
      "2": 17,
      "3": 18,
      "4": 19,
      "5": 20,
      "6": 21,
      "7": 22,
      "8": 23,
      "9": 24,
      ":": 25,
      ";": 26,
      "<": 27,
      "=": 28,
      ">": 29,
      "?": 30,
      "@": 31,
      "A": 32,
      "B": 33,
      "C": 34,
      "D": 35,
      "E": 36,
      "F": 37,
      "G": 38,
      "H": 39,
      "I": 40,
      "J": 41,
      "K": 42,
      "L": 43,
      "M": 44,
      "N": 45,
      "O": 46,
      "P": 47,
      "Q": 48,
      "R": 49,
      "S": 50,
      "T": 51,
      "U": 52,
      "V": 53,
      "W": 54,
      "X": 55,
      "Y": 56,
      "Z": 57,
      "[": 58,
      "\\": 59,
      "]": 60,
      "^": 61,
      "_": 62,
      "`": 63,
      "a": 64,
      "b": 65,
      "c": 66,
      "d": 67,
      "e": 68,
      "f": 69,
      "g": 70,
      "h": 71,
      "i": 72,
      "j": 73,
      "k": 74,
      "l": 75,
      "m": 76,
      "n": 77,
      "o": 78,
      "p": 79,
      "q": 80,
      "r": 81,
      "s": 82,
      "t": 83,
      "u": 84,
      "v": 85,
      "w": 86,
      "x": 87,
      "y": 88,
      "z": 89,
      "{": 90,
      "|": 91,
      "}": 92,
      "~": 93,
      "¡": 94,
      "¢": 95,
      "£": 96,
      "¤": 97,
      "¥": 98,
      "¦": 99,
      "§": 100,
      "¨": 101,
      "©": 102,
      "ª": 103,
      "«": 104,
      "¬": 105,
      "®": 106,
      "¯": 107,
      "°": 108,
      "±": 109,
      "²": 110,
      "³": 111,
      "´": 112,
      "µ": 113,
      "¶": 114,
      "·": 115,
      "¸": 116,
      "¹": 117,
      "º": 118,
      "»": 119,
      "¼": 120,
      "½": 121,
      "¾": 122,
      "¿": 123,
      "À": 124,
      "Á": 125,
      "Â": 126,
      "Ã": 127,
      "Ä": 128,
      "Å": 129,
      "Æ": 130,
      "Ç": 131,
      "È": 132,
      "É": 133,
      "Ê": 134,
      "Ë": 135,
      "Ì": 136,
      "Í": 137,
      "Î": 138,
      "Ï": 139,
      "Ð": 140,
      "Ñ": 141,
      "Ò": 142,
      "Ó": 143,
      "Ô": 144,
      "Õ": 145,
      "Ö": 146,
      "×": 147,
      "Ø": 148,
      "Ù": 149,
      "Ú": 150,
      "Û": 151,
      "Ü": 152,
      "Ý": 153,
      "Þ": 154,
      "ß": 155,
      "à": 156,
      "á": 157,
      "â": 158,
      "ã": 159,
      "ä": 160,
      "å": 161,
      "æ": 162,
      "ç": 163,
      "è": 164,
      "é": 165,
      "ê": 166,
      "ë": 167,
      "ì": 168,
      "í": 169,
      "î": 170,
      "ï": 171,
      "ð": 172,
      "ñ": 173,
      "ò": 174,
      "ó": 175,
      "ô": 176,
      "õ": 177,
      "ö": 178,
      "÷": 179,
      "ø": 180,
      "ù": 181,
      "ú": 182,
      "û": 183,
      "ü": 184,
      "ý": 185,
      "þ": 186,
      "ÿ": 187,
      "Ā": 188,
      "ā": 189,
      "Ă": 190,
      "ă": 191,
      "Ą": 192,
      "ą": 193,
      "Ć": 194,
      "ć": 195,
      "Ĉ": 196,
      "ĉ": 197,
      "Ċ": 198,
      "ċ": 199,
      "Č": 200,
      "č": 201,
      "Ď": 202,
      "ď": 203,
      "Đ": 204,
      "đ": 205,
      "Ē": 206,
      "ē": 207,
      "Ĕ": 208,
      "ĕ": 209,
      "Ė": 210,
      "ė": 211,
      "Ę": 212,
      "ę": 213,
      "Ě": 214,
      "ě": 215,
      "Ĝ": 216,
      "ĝ": 217,
      "Ğ": 218,
      "ğ": 219,
      "Ġ": 220,
      "ġ": 221,
      "Ģ": 222,
      "ģ": 223,
      "Ĥ": 224,
      "ĥ": 225,
      "Ħ": 226,
      "ħ": 227,
      "Ĩ": 228,
      "ĩ": 229,
      "Ī": 230,
      "ī": 231,
      "Ĭ": 232,
      "ĭ": 233,
      "Į": 234,
      "į": 235,
      "İ": 236,
      "ı": 237,
      "Ĳ": 238,
      "ĳ": 239,
      "Ĵ": 240,
      "ĵ": 241,
      "Ķ": 242,
      "ķ": 243,
      "ĸ": 244,
      "Ĺ": 245,
      "ĺ": 246,
      "Ļ": 247,
      "ļ": 248,
      "Ľ": 249,
      "ľ": 250,
      "Ŀ": 251,
      "ŀ": 252,
      "Ł": 253,
      "ł": 254,
      "Ń": 255,
      "he": 256,
      "Ġt": 257,
      "Ġa": 258,
      "Ġs": 259,
      "Ġw": 260,
      "nd": 261,
      "Ġthe": 262,
      "ed": 263,
      "Ġand": 264,
      "Ġto": 265,
      "Ġb": 266,
      "in": 267,
      "Ġh": 268,
      "Ġwa": 269,
      "re": 270,
      "ou": 271,
      "Ġf": 272,
      "it": 273,
      "ĠT": 274,
      "Ġl": 275,
      "Ġc": 276,
      "Ġd": 277,
      "er": 278,
      "Ġhe": 279,
      "Ġm": 280,
      "Ġp": 281,
      "Ġwas": 282,
      "om": 283,
      "Ġo": 284,
      "ay": 285,
      "ĠThe": 286,
      "ar": 287,
      "is": 288,
      "ing": 289,
      "il": 290,
      "Ġg": 291,
      "id": 292,
      "ĠS": 293,
      "at": 294,
      "en": 295,
      "Ġn": 296,
      "Ġsa": 297,
      "Ġha": 298,
      "an": 299,
      "im": 300,
      "or": 301,
      "on": 302,
      "Ġit": 303,
      "Ġth": 304,
      "ĠH": 305,
      "ll": 306,
      "le": 307,
      "Ġ\"": 308,
      "Ġher": 309,
      "ot": 310,
      "et": 311,
      "ĠShe": 312,
      "ir": 313,
      "ĠHe": 314,
      "ĠThey": 315,
      "es": 316,
      "Ġin": 317,
      "ver": 318,
      "ut": 319,
      "ow": 320,
      "ck": 321,
      "Ġe": 322,
      "ĠL": 323,
      "Ġu": 324,
      "ld": 325,
      "Ġy": 326,
      "oo": 327,
      "Ġsaid": 328,
      "ig": 329,
      "ily": 330,
      "Ġr": 331,
      "Ġbe": 332,
      "ĠI": 333,
      "am": 334,
      "Ġst": 335,
      "ce": 336,
      "ke": 337,
      "Ġshe": 338,
      "ve": 339,
      "pp": 340,
      "ith": 341,
      "Ġwith": 342,
      "On": 343,
      "Ġon": 344,
      "Ġyou": 345,
      "Ġof": 346,
      "ked": 347,
      "ri": 348,
      "ĠLily": 349,
      "Ġso": 350,
      "nt": 351,
      "Ġhis": 352,
      "Ġpl": 353,
      "ad": 354,
      "very": 355,
      "ĠB": 356,
      "Ġday": 357,
      "Ġthat": 358,
      "Ġup": 359,
      "Ġplay": 360,
      "Ġhad": 361,
      "st": 362,
      "Ġthey": 363,
      "Ġwe": 364,
      "Ġmom": 365,
      "Ġfor": 366,
      "ĠM": 367,
      "el": 368,
      "un": 369,
      "ould": 370,
      "'s": 371,
      "my": 372,
      "Ġli": 373,
      "čĊ": 374,
      "ch": 375,
      "ent": 376,
      "Ġhapp": 377,
      "Ġwant": 378,
      "itt": 379,
      "Ġsh": 380,
      "out": 381,
      "her": 382,
      "Ġdo": 383,
      "ly": 384,
      "Ġnot": 385,
      "ome": 386,
      "se": 387,
      "Ġvery": 388,
      "ound": 389,
      "end": 390,
      "all": 391,
      "Ġwh": 392,
      "ime": 393,
      "ittle": 394,
      "Ġk": 395,
      "Ġtime": 396,
      "Ġlittle": 397,
      "al": 398,
      "Ġthere": 399,
      "Ġne": 400,
      "ht": 401,
      "Ġre": 402,
      "ĠA": 403,
      "Ġhappy": 404,
      "Ġsm": 405,
      "ĠIt": 406,
      "ĠĠ": 407,
      "Ġbig": 408,
      "Ġis": 409,
      "Ġbut": 410,
      "ack": 411,
      "Ġan": 412,
      "Ġsaw": 413,
      "riend": 414,
      ".\"": 415,
      "Ġfriend": 416,
      "ry": 417,
      "Ġas": 418,
      "ra": 419,
      "One": 420,
      "ide": 421,
      "ake": 422,
      "'t": 423,
      "!\"": 424,
      "ug": 425,
      "Ġloo": 426,
      "ved": 427,
      "ter": 428,
      "Ġwere": 429,
      "ĠTim": 430,
      "ore": 431,
      "Once": 432,
      "Ġlo": 433,
      "ĠOne": 434,
      "ec": 435,
      "Ġhim": 436,
      "Ġtoo": 437,
      "Ġgo": 438,
      "ĠJ": 439,
      "Ġbo": 440,
      "Ġse": 441,
      "irl": 442,
      "Ġare": 443,
      "Ġj": 444,
      "ard": 445,
      "Ġwanted": 446,
      "ill": 447,
      "Ġgirl": 448,
      "Ġupon": 449,
      "Ġthem": 450,
      "Ġout": 451,
      "Ġat": 452,
      "ur": 453,
      "ind": 454,
      "Ġtheir": 455,
      "fu": 456,
      "Ġsp": 457,
      "way": 458,
      "Ġsmil": 459,
      "Ġdid": 460,
      "Ġcould": 461,
      "ĠTom": 462,
      "hen": 463,
      "ĠBen": 464,
      "Ġhave": 465,
      "ain": 466,
      "art": 467,
      "Ġex": 468,
      "hed": 469,
      "rom": 470,
      "Ġwent": 471,
      "Ġar": 472,
      "ic": 473,
      "Ġcan": 474,
      "ĠW": 475,
      "lp": 476,
      "ful": 477,
      "ood": 478,
      "?\"": 479,
      "hing": 480,
      "Ġfriends": 481,
      "Ġnam": 482,
      "ĠBut": 483,
      "ight": 484,
      "Ġall": 485,
      "Ġhelp": 486,
      "Ġkn": 487,
      "um": 488,
      "one": 489,
      "ark": 490,
      "Ġback": 491,
      "Ġsay": 492,
      "You": 493,
      "Ġfun": 494,
      "Ġcl": 495,
      "are": 496,
      "Ġno": 497,
      "Ġle": 498,
      "op": 499,
      "ĠTimmy": 500,
      "Ġsmiled": 501,
      "Ġsc": 502,
      "Ġnamed": 503,
      "Ġal": 504,
      "oug": 505,
      "Ġloved": 506,
      "side": 507,
      "elt": 508,
      "Ġman": 509,
      "Ġasked": 510,
      "ick": 511,
      "Ġtoy": 512,
      "Ġlike": 513,
      "Ġfe": 514,
      "Ġfelt": 515,
      "Ġlooked": 516,
      "Ġsome": 517,
      "Ġaround": 518,
      "Ġsee": 519,
      "Ġme": 520,
      "ame": 521,
      "omet": 522,
      "Ġro": 523,
      "Ġbr": 524,
      "ure": 525,
      "Ġbir": 526,
      "get": 527,
      "ice": 528,
      "Ġboy": 529,
      "Ġwould": 530,
      "Ġstart": 531,
      "ong": 532,
      "Ã¢": 533,
      "âĤ": 534,
      "âĤ¬": 535,
      "ss": 536,
      "Ġbird": 537,
      "Ġsomet": 538,
      "Ġfa": 539,
      "dd": 540,
      "ings": 541,
      "Ġag": 542,
      "Ġwor": 543,
      "Ġwhat": 544,
      "ade": 545,
      "Ġmake": 546,
      "king": 547,
      "ĠMom": 548,
      ",\"": 549,
      "ie": 550,
      "own": 551,
      "Ġtre": 552,
      "Ġran": 553,
      "gether": 554,
      "ĠYou": 555,
      "Ġaway": 556,
      "ag": 557,
      "ared": 558,
      "Ġsays": 559,
      "Ġstarted": 560,
      "oud": 561,
      "if": 562,
      "Ġmade": 563,
      "Ġcar": 564,
      "Ġsomething": 565,
      "Ġtogether": 566,
      "ited": 567,
      "ther": 568,
      "Ġpark": 569,
      "Ġco": 570,
      "Ġsad": 571,
      "Ġother": 572,
      "Ġnew": 573,
      "Ġexc": 574,
      "ĠE": 575,
      "Ġput": 576,
      "Ġfrom": 577,
      "Ġpr": 578,
      "ell": 579,
      "Ġla": 580,
      "Ġhug": 581,
      "ble": 582,
      "Ġmu": 583,
      "ook": 584,
      "ach": 585,
      "Ġagain": 586,
      "Ġhome": 587,
      "Ġwhen": 588,
      "ĠF": 589,
      "Ġgood": 590,
      "hat": 591,
      "ep": 592,
      "Ġwho": 593,
      "est": 594,
      "ried": 595,
      "Ġfound": 596,
      "Ġfl": 597,
      "Ġthen": 598,
      "Ġch": 599,
      "Ġdec": 600,
      "pped": 601,
      "Ġwal": 602,
      "as": 603,
      "Ġget": 604,
      "qu": 605,
      "ĠD": 606,
      "Ġplaying": 607,
      "ought": 608,
      "pl": 609,
      "ally": 610,
      "Ġsw": 611,
      "ĠSu": 612,
      "ous": 613,
      "nn": 614,
      "Ġthings": 615,
      "Ġexcited": 616,
      "Ġliked": 617,
      "Ġgot": 618,
      "uck": 619,
      "ro": 620,
      "ided": 621,
      "Ġdecided": 622,
      "Ġbl": 623,
      "ave": 624,
      "Ġcame": 625,
      "Ġevery": 626,
      "ara": 627,
      "Ġyour": 628,
      "ĠSam": 629,
      "ax": 630,
      "Ġv": 631,
      "Ġscared": 632,
      "ust": 633,
      "Ġone": 634,
      "Ġdog": 635,
      "Ġdown": 636,
      "ouse": 637,
      "ny": 638,
      "Ġfind": 639,
      "Ġcare": 640,
      "Ġbec": 641,
      "ist": 642,
      "Ġthan": 643,
      "Ġfeel": 644,
      "ap": 645,
      "nna": 646,
      "Ġdad": 647,
      "Ġab": 648,
      "Ġmy": 649,
      "Ġlook": 650,
      "Ġke": 651,
      "our": 652,
      "Ġwill": 653,
      "arn": 654,
      "Ġgr": 655,
      "nder": 656,
      "Ġgra": 657,
      "ways": 658,
      "ess": 659,
      "Ġdidn": 660,
      "ĠMax": 661,
      "Ġpo": 662,
      "fe": 663,
      "Ġalways": 664,
      "Ġtook": 665,
      "Ġabout": 666,
      "ant": 667,
      "bb": 668,
      "Ġlot": 669,
      "Ġmommy": 670,
      "Ġtoys": 671,
      "Ġkne": 672,
      "ers": 673,
      "ise": 674,
      "ĠSo": 675,
      "Ġbu": 676,
      "ĠSara": 677,
      "ite": 678,
      "Ġoutside": 679,
      "Ġtree": 680,
      "Ġthought": 681,
      "Ġball": 682,
      "Ġmore": 683,
      "eci": 684,
      "ened": 685,
      "ched": 686,
      "Ġta": 687,
      "Ġold": 688,
      "ĠAnna": 689,
      "Ġho": 690,
      "Ġlearn": 691,
      "ret": 692,
      "Ġint": 693,
      "ged": 694,
      "ĠWhen": 695,
      "Ġpu": 696,
      "Ġknow": 697,
      "Ġlaug": 698,
      "Ġtake": 699,
      "ecial": 700,
      "Ġspecial": 701,
      "Ġsor": 702,
      "Ġcat": 703,
      "dden": 704,
      "Ġknew": 705,
      "ive": 706,
      "ĠHer": 707,
      "ia": 708,
      "Ġpe": 709,
      "Ġany": 710,
      "ddenly": 711,
      "Ġtr": 712,
      "fter": 713,
      "Ġhow": 714,
      "ĠJo": 715,
      "au": 716,
      "ma": 717,
      "Ġshow": 718,
      "ink": 719,
      "Ġsorry": 720,
      "Ġtw": 721,
      "Ġmuch": 722,
      "ish": 723,
      "Ġrun": 724,
      "and": 725,
      "Ġhand": 726,
      "ĠEvery": 727,
      "Ġsl": 728,
      "ĠJack": 729,
      "ven": 730,
      "Ġhouse": 731,
      "Ġor": 732,
      "Ġop": 733,
      "Ġsk": 734,
      "Ġmo": 735,
      "Ġclo": 736,
      "Ġsun": 737,
      "Ġinto": 738,
      "Ġtried": 739,
      "Ġinside": 740,
      "ate": 741,
      "Ġtold": 742,
      "Ġwater": 743,
      "Ġthis": 744,
      "Ġen": 745,
      "ank": 746,
      "Ġif": 747,
      "Ġproud": 748,
      "ump": 749,
      "Ġqu": 750,
      "Ġover": 751,
      "here": 752,
      "Ġcouldn": 753,
      "dy": 754,
      "Ġgave": 755,
      "Ġheard": 756,
      "Ġnever": 757,
      "by": 758,
      "Ġeach": 759,
      "ace": 760,
      "Ġroom": 761,
      "ty": 762,
      "Ġexpl": 763,
      "Ġeat": 764,
      "ĠSuddenly": 765,
      "ĠWe": 766,
      "other": 767,
      "ause": 768,
      "Ġpick": 769,
      "ion": 770,
      "Ġpret": 771,
      "Ġplayed": 772,
      "ge": 773,
      "etter": 774,
      "ĠThen": 775,
      "Ġjust": 776,
      "ak": 777,
      "Ġhugged": 778,
      "Ġgre": 779,
      "Ġoff": 780,
      "Ġcom": 781,
      "Ġwat": 782,
      "oth": 783,
      "ĠMia": 784,
      "Ġbox": 785,
      "Ġnice": 786,
      "ĠFrom": 787,
      "ue": 788,
      "'m": 789,
      "Ġstr": 790,
      "Ġbecause": 791,
      "Ġneed": 792,
      "ĠHis": 793,
      "ile": 794,
      "Ġmany": 795,
      "ĠAnd": 796,
      "Ġfo": 797,
      "uc": 798,
      "Ġjo": 799,
      "Ġbear": 800,
      "Ġsmall": 801,
      "iz": 802,
      "ving": 803,
      "Ġlong": 804,
      "ine": 805,
      "gry": 806,
      "sed": 807,
      "imal": 808,
      "ort": 809,
      "Ġanimal": 810,
      "Ġsn": 811,
      "ough": 812,
      "Ġtry": 813,
      "Ġunt": 814,
      "ild": 815,
      "sel": 816,
      "urt": 817,
      "Ġuntil": 818,
      "ĠC": 819,
      "Ġkind": 820,
      "Ġlearned": 821,
      "Ġim": 822,
      "ĠÃ¢": 823,
      "Ġlove": 824,
      "Ġbetter": 825,
      "ft": 826,
      "Ġflow": 827,
      "Ġcall": 828,
      "Ġdon": 829,
      "Ġend": 830,
      "Ġad": 831,
      "Ġbest": 832,
      "vent": 833,
      "Yes": 834,
      "ars": 835,
      "urp": 836,
      "ady": 837,
      "em": 838,
      "ream": 839,
      "aut": 840,
      "urn": 841,
      "Ġcle": 842,
      "ves": 843,
      "Åĵ": 844,
      "arden": 845,
      "Ġgarden": 846,
      "Ġfast": 847,
      "Ġcu": 848,
      "Ġcareful": 849,
      "ber": 850,
      "lly": 851,
      "Ġbeaut": 852,
      "Ġeven": 853,
      "pt": 854,
      "Ġbra": 855,
      "ies": 856,
      "Ġthanked": 857,
      "Ġfi": 858,
      "Ġche": 859,
      "Ġlaughed": 860,
      "Ġsky": 861,
      "Ġby": 862,
      "Ġjump": 863,
      "Ġgl": 864,
      "ase": 865,
      "Ġte": 866,
      "Ġloud": 867,
      "self": 868,
      "Th": 869,
      "iny": 870,
      "Ġway": 871,
      "wn": 872,
      "Ġbeauti": 873,
      "Ġcome": 874,
      "lew": 875,
      "Ġlist": 876,
      "Ġwo": 877,
      "Ġbeautiful": 878,
      "Ġhard": 879,
      "Ġlots": 880,
      "Ġra": 881,
      "Ġstill": 882,
      "Ġfam": 883,
      "Ġanimals": 884,
      "Ġhurt": 885,
      "Ġunder": 886,
      "ect": 887,
      "Ġstay": 888,
      "ning": 889,
      "Ġlet": 890,
      "ct": 891,
      "ĠP": 892,
      "Ġboth": 893,
      "It": 894,
      "sh": 895,
      "hes": 896,
      "be": 897,
      "Ġsafe": 898,
      "ool": 899,
      "ree": 900,
      "Ġcol": 901,
      "Ġtwo": 902,
      "Ġbad": 903,
      "Ġbook": 904,
      "Ġimp": 905,
      "ople": 906,
      "Ġrem": 907,
      "ane": 908,
      "ĠAs": 909,
      "Ġlived": 910,
      "kay": 911,
      "ock": 912,
      "ucy": 913,
      "Ġwalked": 914,
      "ast": 915,
      "Ġsu": 916,
      "urpr": 917,
      "Ġbrave": 918,
      "Ġshould": 919,
      "Ġits": 920,
      "ĠLucy": 921,
      "ob": 922,
      "ished": 923,
      "Ġangry": 924,
      "Ġsurpr": 925,
      "Ġfamily": 926,
      "ress": 927,
      "igh": 928,
      "Ġpeople": 929,
      "Ġflew": 930,
      "Ġcalled": 931,
      "No": 932,
      "Ġred": 933,
      "ĠAfter": 934,
      "Ġstor": 935,
      "ĠJoh": 936,
      "ip": 937,
      "Ġsoon": 938,
      "Ġfin": 939,
      "Let": 940,
      "led": 941,
      "Ġkept": 942,
      "Ġfore": 943,
      "fore": 944,
      "Ġdan": 945,
      "Ġshare": 946,
      "Ġfly": 947,
      "xt": 948,
      "ised": 949,
      "dded": 950,
      "Ġpic": 951,
      "âĤ¬â": 952,
      "Ġdoor": 953,
      "Ġgoing": 954,
      "Ġpretty": 955,
      "ĠMommy": 956,
      "ĠG": 957,
      "Ġkeep": 958,
      "Ġnow": 959,
      "ĠDad": 960,
      "Ġrock": 961,
      "Ġclean": 962,
      "Ġdra": 963,
      "ary": 964,
      "Ġadvent": 965,
      "ummy": 966,
      "Ġnoise": 967,
      "Ġopened": 968,
      "Ġshiny": 969,
      "age": 970,
      "Ġexplore": 971,
      "Ġwind": 972,
      "Ġdoll": 973,
      "Ġcry": 974,
      "Ġcon": 975,
      "Ġide": 976,
      "Ġbefore": 977,
      "ied": 978,
      "illy": 979,
      "Ġreal": 980,
      "Ġsto": 981,
      "so": 982,
      "What": 983,
      "Ġground": 984,
      "Ġalso": 985,
      "les": 986,
      "Ġturn": 987,
      "Ħ¢": 988,
      "âĤ¬âĦ¢": 989,
      "Ġey": 990,
      "Ġfar": 991,
      "Ġidea": 992,
      "Ġfr": 993,
      "ĠSp": 994,
      "Ġnodded": 995,
      "Ġcolor": 996,
      "Ġwar": 997,
      "Ġfeeling": 998,
      "ĠJohn": 999,
      "Ġun": 1000,
      "Ġpicked": 1001,
      "oy": 1002,
      "imb": 1003,
      "th": 1004,
      "Ġnext": 1005,
      "Ġwalking": 1006,
      "thing": 1007,
      "ture": 1008,
      "Ġclimb": 1009,
      "Ġhas": 1010,
      "Ġma": 1011,
      "Ġthr": 1012,
      "Ġwhile": 1013,
      "eet": 1014,
      "Ġbed": 1015,
      "Ġadventure": 1016,
      "Ġsmile": 1017,
      "ĠBob": 1018,
      "kes": 1019,
      "That": 1020,
      "aybe": 1021,
      "iced": 1022,
      "ger": 1023,
      "Thank": 1024,
      "ious": 1025,
      "Ġbeing": 1026,
      "Ġdif": 1027,
      "Ġwr": 1028,
      "Ġclos": 1029,
      "Ġfood": 1030,
      "joy": 1031,
      "ted": 1032,
      "Ġgive": 1033,
      "Ġpicture": 1034,
      "Ġthink": 1035,
      "Ġlooking": 1036,
      "ĠN": 1037,
      "Ġdel": 1038,
      "ff": 1039,
      "ac": 1040,
      "Ġtruck": 1041,
      "Ġwait": 1042,
      "Ġeyes": 1043,
      "ught": 1044,
      "Ġtow": 1045,
      "ting": 1046,
      "Ġrepl": 1047,
      "Ġbro": 1048,
      "Ġstopped": 1049,
      "Ġlisten": 1050,
      "Ġafter": 1051,
      "Ġbre": 1052,
      "Ġown": 1053,
      "Ġvo": 1054,
      "Ġwalk": 1055,
      "ember": 1056,
      "Ġwonder": 1057,
      "Ġgreat": 1058,
      "ĠSpot": 1059,
      "ĠR": 1060,
      "Ġhands": 1061,
      "Ġshout": 1062,
      "Ġhead": 1063,
      "Ġenjoy": 1064,
      "Ġimport": 1065,
      "Ġflowers": 1066,
      "Ġever": 1067,
      "ĠSue": 1068,
      "Ġnoticed": 1069,
      "Ġblue": 1070,
      "Ġforest": 1071,
      "bbit": 1072,
      "ized": 1073,
      "Ġapp": 1074,
      "irst": 1075,
      "Ġnear": 1076,
      "Ġquick": 1077,
      "Ġdis": 1078,
      "Ġde": 1079,
      "able": 1080,
      "Ġimportant": 1081,
      "Ġremember": 1082,
      "Ġfish": 1083,
      "llow": 1084,
      "Ġsound": 1085,
      "oon": 1086,
      "Ġslide": 1087,
      "Ġus": 1088,
      "maz": 1089,
      "Ġreplied": 1090,
      "Ġamaz": 1091,
      "Ġac": 1092,
      "lease": 1093,
      "Ġwork": 1094,
      "Ġwatch": 1095,
      "Ġrain": 1096,
      "Ġshowed": 1097,
      "Ġrabbit": 1098,
      "Ġokay": 1099,
      "gan": 1100,
      "Ġtal": 1101,
      "bye": 1102,
      "Lily": 1103,
      "fere": 1104,
      "bbed": 1105,
      "Ġask": 1106,
      "Ġru": 1107,
      "Ġdiffere": 1108,
      "Ġmean": 1109,
      "ĠSarah": 1110,
      "Ġright": 1111,
      "Ġtou": 1112,
      "Ġye": 1113,
      "day": 1114,
      "Ġwatched": 1115,
      "Ġbright": 1116,
      "Ġfollow": 1117,
      "Ġeveryone": 1118,
      "Ġstrong": 1119,
      "We": 1120,
      "Ġsqu": 1121,
      "Ġstick": 1122,
      "Ġuse": 1123,
      "Ġbeen": 1124,
      "Ġmor": 1125,
      "Ġvoice": 1126,
      "Ġtra": 1127,
      "ered": 1128,
      "Ġquickly": 1129,
      "ath": 1130,
      "Ġour": 1131,
      "Ġwhere": 1132,
      "Ġyell": 1133,
      "Ġdifferent": 1134,
      "Ġchild": 1135,
      "Ġcuri": 1136,
      "Ġboat": 1137,
      "ng": 1138,
      "Ġsure": 1139,
      "ĠJane": 1140,
      "Ġbecame": 1141,
      "Ġgoodbye": 1142,
      "Ġface": 1143,
      "Ġplace": 1144,
      "ange": 1145,
      "Ġhop": 1146,
      "Ġhigh": 1147,
      "ĠTh": 1148,
      "Ġam": 1149,
      "Look": 1150,
      "aught": 1151,
      "Ġcloser": 1152,
      "Ġstore": 1153,
      "Ġwarm": 1154,
      "Ġdoes": 1155,
      "Ġcr": 1156,
      "Ġdress": 1157,
      "unny": 1158,
      "Ġcurious": 1159,
      "Ġmag": 1160,
      "ila": 1161,
      "Ġcook": 1162,
      "Ġbel": 1163,
      "Ġforg": 1164,
      "Ġtell": 1165,
      "Ġfav": 1166,
      "ndma": 1167,
      "ass": 1168,
      "ount": 1169,
      "co": 1170,
      "Ġthree": 1171,
      "ĠJoe": 1172,
      "leep": 1173,
      "Ġnight": 1174,
      "Ġopen": 1175,
      "Ġcake": 1176,
      "more": 1177,
      "Ġhere": 1178,
      "Ġanymore": 1179,
      "Ġblock": 1180,
      "Ġfirst": 1181,
      "itc": 1182,
      "ull": 1183,
      "Ġpull": 1184,
      "iss": 1185,
      "ached": 1186,
      "ired": 1187,
      "Ġbutter": 1188,
      "Ġz": 1189,
      "imes": 1190,
      "orn": 1191,
      "Ġsweet": 1192,
      "Ġpain": 1193,
      "Ġkid": 1194,
      "Ġgrabbed": 1195,
      "Can": 1196,
      "isy": 1197,
      "ĠIn": 1198,
      "Ġonly": 1199,
      "Ġmon": 1200,
      "Ġlea": 1201,
      "Ġfell": 1202,
      "Ġba": 1203,
      "Ġcont": 1204,
      "ĠEveryone": 1205,
      "Ġbirds": 1206,
      "Ġjumped": 1207,
      "Ġglad": 1208,
      "Ġbit": 1209,
      "Ġsand": 1210,
      "itchen": 1211,
      "Ġkitchen": 1212,
      "Mom": 1213,
      "ĠThat": 1214,
      "Ġhelped": 1215,
      "Ġsees": 1216,
      "Ġfire": 1217,
      "Ġper": 1218,
      "Ġflo": 1219,
      "Ġstop": 1220,
      "Ġhappened": 1221,
      "Ġsing": 1222,
      "Ġgrass": 1223,
      "Ġbunny": 1224,
      "Ġshouted": 1225,
      "Ġstory": 1226,
      "ĠLet": 1227,
      "Ġtri": 1228,
      "nts": 1229,
      "Ġdr": 1230,
      "air": 1231,
      "ĠDo": 1232,
      "Ġreached": 1233,
      "ppy": 1234,
      "Ġbeh": 1235,
      "ey": 1236,
      "Ġrealized": 1237,
      "Ġyummy": 1238,
      "Ġbrother": 1239,
      "Ġlady": 1240,
      "Ġmum": 1241,
      "Ġhaving": 1242,
      "Ġprin": 1243,
      "ins": 1244,
      "Ġfavor": 1245,
      "ĠLila": 1246,
      "'re": 1247,
      "Ġmess": 1248,
      "Ġfavorite": 1249,
      "Ġdraw": 1250,
      "Ġcre": 1251,
      "Ġrest": 1252,
      "Ġthrough": 1253,
      "Ġgame": 1254,
      "Ġhat": 1255,
      "Ġate": 1256,
      "Ġless": 1257,
      "Ġunderst": 1258,
      "akes": 1259,
      "Ġsoft": 1260,
      "Ġpare": 1261,
      "zy": 1262,
      "Ġthing": 1263,
      "Ġreally": 1264,
      "ather": 1265,
      "Ġready": 1266,
      "Ġbegan": 1267,
      "where": 1268,
      "Ġpretend": 1269,
      "ĠCan": 1270,
      "Ġworld": 1271,
      "Ġlooks": 1272,
      "ken": 1273,
      "Ġhimself": 1274,
      "Ġmagic": 1275,
      "fully": 1276,
      "Ġpap": 1277,
      "Ġdone": 1278,
      "Ġbutterf": 1279,
      "Ġmaking": 1280,
      "Ġcut": 1281,
      "Ġcoming": 1282,
      "Ġduck": 1283,
      "ater": 1284,
      "Ġpond": 1285,
      "Ġkids": 1286,
      "Ġwaved": 1287,
      "Ġwhy": 1288,
      "Ġprom": 1289,
      "Ġtired": 1290,
      "Ġfro": 1291,
      "Ġfix": 1292,
      "ster": 1293,
      "Ġmouse": 1294,
      "Ġworry": 1295,
      "olly": 1296,
      "Ġpart": 1297,
      "Ġcars": 1298,
      "Ġste": 1299,
      "Ġdelic": 1300,
      "Ġname": 1301,
      "Ġflower": 1302,
      "ign": 1303,
      "ĠTommy": 1304,
      "ĠFin": 1305,
      "Ġfill": 1306,
      "Wow": 1307,
      "aisy": 1308,
      "Ġtouch": 1309,
      "eddy": 1310,
      "Ġfunny": 1311,
      "Ġcatch": 1312,
      "bo": 1313,
      "Ġused": 1314,
      "Ġseen": 1315,
      "Ġhair": 1316,
      "Ġtast": 1317,
      "ient": 1318,
      "Ġtop": 1319,
      "Ġparents": 1320,
      "rel": 1321,
      "Ġanother": 1322,
      "ĠSally": 1323,
      "Ġhold": 1324,
      "Ġhopped": 1325,
      "Ġcried": 1326,
      "iver": 1327,
      "oney": 1328,
      "mer": 1329,
      "Ġdoing": 1330,
      "Ġcool": 1331,
      "Ġblocks": 1332,
      "\".": 1333,
      "Ġsurprise": 1334,
      "Tom": 1335,
      "Ġlight": 1336,
      "hy": 1337,
      "Ġgreen": 1338,
      "Ġthank": 1339,
      "Ġlesson": 1340,
      "ation": 1341,
      "Ġread": 1342,
      "Ġfloor": 1343,
      "Ġdin": 1344,
      "Ġgi": 1345,
      "Ġwood": 1346,
      "Ġdri": 1347,
      "Don": 1348,
      "ards": 1349,
      "Ġfull": 1350,
      "Ġtrees": 1351,
      "Ġrunning": 1352,
      "Ġwindow": 1353,
      "Ġworked": 1354,
      "Ġyears": 1355,
      "Ġcra": 1356,
      "Ġ-": 1357,
      "Ġdro": 1358,
      "Ġdark": 1359,
      "Ġbehind": 1360,
      "Ġlikes": 1361,
      "Ġsmell": 1362,
      "Ġspot": 1363,
      "Ġwished": 1364,
      "Ġpaper": 1365,
      "ued": 1366,
      "Ġyellow": 1367,
      "andy": 1368,
      "Ġbow": 1369,
      "ren": 1370,
      "Ġswim": 1371,
      "Ġhappily": 1372,
      "Ġbag": 1373,
      "Ġsat": 1374,
      "ul": 1375,
      "Ġsho": 1376,
      "Ġsleep": 1377,
      "us": 1378,
      "aring": 1379,
      "Ġsurprised": 1380,
      "ĠDaisy": 1381,
      "ely": 1382,
      "Ġfrog": 1383,
      "Ġbutterfly": 1384,
      "ike": 1385,
      "Ġswing": 1386,
      "Ġset": 1387,
      "Ġcarefully": 1388,
      "ĠEm": 1389,
      "Ġslow": 1390,
      "Ġremembered": 1391,
      "Ġlost": 1392,
      "Ġcold": 1393,
      "ĠBenny": 1394,
      "Ġheld": 1395,
      "uff": 1396,
      "ello": 1397,
      "Hello": 1398,
      "Ġhole": 1399,
      "Ġice": 1400,
      "Ġlaugh": 1401,
      "rew": 1402,
      "Ġneeded": 1403,
      "ĠAt": 1404,
      "Ġbuy": 1405,
      "Ġperf": 1406,
      "Ġleft": 1407,
      "ĠK": 1408,
      "ons": 1409,
      "Ġmove": 1410,
      "reed": 1411,
      "cess": 1412,
      "Ġanything": 1413,
      "Ġdream": 1414,
      "Ġtall": 1415,
      "Ġenjoyed": 1416,
      "Ġwrong": 1417,
      "Ġarri": 1418,
      "Ġhear": 1419,
      "ĠNow": 1420,
      "Ġfair": 1421,
      "Ġair": 1422,
      "Ġfollowed": 1423,
      "ĠFinally": 1424,
      "Ġbooks": 1425,
      "ross": 1426,
      "Ġel": 1427,
      "Ġchildren": 1428,
      "Ġbus": 1429,
      "Ġhun": 1430,
      "Ġdelicious": 1431,
      "Ġtable": 1432,
      "Ġfinished": 1433,
      "Ġcontin": 1434,
      "Ġfriendly": 1435,
      "Ġdir": 1436,
      "Ġhot": 1437,
      "Ġsnow": 1438,
      "Ġherself": 1439,
      "ĠTo": 1440,
      "ĠGra": 1441,
      "ds": 1442,
      "lf": 1443,
      "Ġhill": 1444,
      "ens": 1445,
      "Ġunderstand": 1446,
      "Ġplease": 1447,
      "Ġclose": 1448,
      "ĠBilly": 1449,
      "ined": 1450,
      "Ġhid": 1451,
      "ĠJim": 1452,
      "sp": 1453,
      "Ġarrived": 1454,
      "Ġcast": 1455,
      "Ġelse": 1456,
      "Ġarm": 1457,
      "Ġbaby": 1458,
      "Ġwonderful": 1459,
      "Ġmight": 1460,
      "Ġgent": 1461,
      "Ġtight": 1462,
      "Ġforgot": 1463,
      "ĠAmy": 1464,
      "ield": 1465,
      "Ġbug": 1466,
      "Ġcolors": 1467,
      "Ġrel": 1468,
      "Ġbuild": 1469,
      "Ġbroken": 1470,
      "Ġable": 1471,
      "Ġgone": 1472,
      "av": 1473,
      "ner": 1474,
      "Ġyes": 1475,
      "atter": 1476,
      "Ġsong": 1477,
      "ich": 1478,
      "Ġwall": 1479,
      "Ġsquir": 1480,
      "Ġfilled": 1481,
      "Ġagreed": 1482,
      "Ġsomeone": 1483,
      "Ġgu": 1484,
      "Ġcontinued": 1485,
      "room": 1486,
      "ĠThere": 1487,
      "Ġcreat": 1488,
      "asure": 1489,
      "'ll": 1490,
      "Ġcount": 1491,
      "ĠJen": 1492,
      "Ġwants": 1493,
      "Ġsquirrel": 1494,
      "Ġpink": 1495,
      "Ġleaves": 1496,
      "ask": 1497,
      "ĠThis": 1498,
      "Ġenough": 1499,
      "ĠMolly": 1500,
      "Ġlion": 1501,
      "ama": 1502,
      "ee": 1503,
      "OK": 1504,
      "Ġmorning": 1505,
      "Ġvis": 1506,
      "Ġmoment": 1507,
      "Ġfinally": 1508,
      "Ġgetting": 1509,
      "Ġstayed": 1510,
      "Ġcookies": 1511,
      "Ġbreak": 1512,
      "shed": 1513,
      "app": 1514,
      "Ġpoin": 1515,
      "ance": 1516,
      "Ġbeach": 1517,
      "ĠMaybe": 1518,
      "Ġfew": 1519,
      "Ġscary": 1520,
      "Ġfight": 1521,
      "Ġsometimes": 1522,
      "row": 1523,
      "ash": 1524,
      "ries": 1525,
      "ced": 1526,
      "red": 1527,
      "ĠWhat": 1528,
      "Ġturned": 1529,
      "Ġhungry": 1530,
      "Ġfall": 1531,
      "Ġdinner": 1532,
      "gon": 1533,
      "Ġmother": 1534,
      "Ġgrandma": 1535,
      "Ġju": 1536,
      "Ġwet": 1537,
      "Ġamazing": 1538,
      "apped": 1539,
      "Ġtrying": 1540,
      "Ġcream": 1541,
      "Ġdaddy": 1542,
      "Ġperfect": 1543,
      "Ġpi": 1544,
      "Ġmakes": 1545,
      "Ġcastle": 1546,
      "Ġothers": 1547,
      "Ġclimbed": 1548,
      "key": 1549,
      "oup": 1550,
      "Ġpictures": 1551,
      "icy": 1552,
      "Ġcomp": 1553,
      "amp": 1554,
      "Ġtalk": 1555,
      "Ġmet": 1556,
      "Ġmus": 1557,
      "ere": 1558,
      "Ġwhite": 1559,
      "oom": 1560,
      "Ġlistened": 1561,
      "Ġsmiles": 1562,
      "man": 1563,
      "Ġfur": 1564,
      "Ġballoon": 1565,
      "Ġclot": 1566,
      "oring": 1567,
      "Ġalone": 1568,
      "Ġclothes": 1569,
      "Ġpol": 1570,
      "lc": 1571,
      "Ġtail": 1572,
      "Ġjoy": 1573,
      "ated": 1574,
      "rot": 1575,
      "Oh": 1576,
      "Ġpuppy": 1577,
      "Ġspl": 1578,
      "ence": 1579,
      "Ġmar": 1580,
      "Ġwasn": 1581,
      "Ġbrought": 1582,
      "Ġdeep": 1583,
      "Ġeverything": 1584,
      "Ġpet": 1585,
      "Ġsear": 1586,
      "Ġstrange": 1587,
      "ister": 1588,
      "ctor": 1589,
      "Ġspark": 1590,
      "The": 1591,
      "der": 1592,
      "Ġsit": 1593,
      "Ġwoods": 1594,
      "Ġgrow": 1595,
      "Ġpulled": 1596,
      "ling": 1597,
      "Ġsail": 1598,
      "ott": 1599,
      "Ġwon": 1600,
      "Ġplan": 1601,
      "Ġride": 1602,
      "eter": 1603,
      "Ġasks": 1604,
      "Ġfox": 1605,
      "Ġpie": 1606,
      "Ġdanger": 1607,
      "Ġtreat": 1608,
      "uffy": 1609,
      "Ġroll": 1610,
      "Ġvisit": 1611,
      "os": 1612,
      "Ġleave": 1613,
      "med": 1614,
      "Ġpat": 1615,
      "ĠJill": 1616,
      "ucky": 1617,
      "This": 1618,
      "Ġmusic": 1619,
      "Ġamazed": 1620,
      "Ġwaited": 1621,
      "ĠSoon": 1622,
      "Ġteddy": 1623,
      "Ġhide": 1624,
      "me": 1625,
      "But": 1626,
      "ang": 1627,
      "ever": 1628,
      "Ġtowards": 1629,
      "ower": 1630,
      "Ġfield": 1631,
      "Ġland": 1632,
      "Ġpre": 1633,
      "Ġflying": 1634,
      "zz": 1635,
      "ĠAll": 1636,
      "Ġpen": 1637,
      "Ġsilly": 1638,
      "Ġshared": 1639,
      "Ġruns": 1640,
      "ained": 1641,
      "Ġowner": 1642,
      "Ġcloud": 1643,
      "ape": 1644,
      "Ġliving": 1645,
      "ugg": 1646,
      "Ġqui": 1647,
      "ames": 1648,
      "Ġjob": 1649,
      "Ġpromised": 1650,
      "ĠDaddy": 1651,
      "Okay": 1652,
      "Ġbelie": 1653,
      "igg": 1654,
      "Ġmoral": 1655,
      "Ġside": 1656,
      "gs": 1657,
      "orm": 1658,
      "ol": 1659,
      "Ġlake": 1660,
      "Ġthinks": 1661,
      "cket": 1662,
      "Maybe": 1663,
      "ope": 1664,
      "Ġpaint": 1665,
      "Ġsec": 1666,
      "thy": 1667,
      "Ġsister": 1668,
      "ually": 1669,
      "Ġparty": 1670,
      "Ġquiet": 1671,
      "ises": 1672,
      "Ġmust": 1673,
      "cle": 1674,
      "Ġrace": 1675,
      "avy": 1676,
      "Ġmoney": 1677,
      "Ġwear": 1678,
      "sw": 1679,
      "Ġworried": 1680,
      "ased": 1681,
      "Ġansw": 1682,
      "unch": 1683,
      "Ġslowly": 1684,
      "Ġpot": 1685,
      "eces": 1686,
      "ĠMary": 1687,
      "Ġcolorful": 1688,
      "Ġfaster": 1689,
      "Ġgrate": 1690,
      "Ġow": 1691,
      "Ġdance": 1692,
      "Ġpieces": 1693,
      "Ġbran": 1694,
      "Ġbott": 1695,
      "Ġwelc": 1696,
      "Ġbroke": 1697,
      "Ġcup": 1698,
      "ix": 1699,
      "Ġgrateful": 1700,
      "Ġgif": 1701,
      "Ġsuch": 1702,
      "Ġbigger": 1703,
      "ze": 1704,
      "Ġtrain": 1705,
      "ph": 1706,
      "fort": 1707,
      "Ġsnack": 1708,
      "Mommy": 1709,
      "Ġcho": 1710,
      "ĠFl": 1711,
      "Ġreach": 1712,
      "Ġblank": 1713,
      "ĠMr": 1714,
      "Ġmonster": 1715,
      "Ġpro": 1716,
      "Ġplant": 1717,
      "Ġjoin": 1718,
      "Ġriver": 1719,
      "Ġblack": 1720,
      "less": 1721,
      "Ġwin": 1722,
      "Ġcandy": 1723,
      "ire": 1724,
      "Ġblanket": 1725,
      "Ġscream": 1726,
      "uit": 1727,
      "Ġtreasure": 1728,
      "ear": 1729,
      "Ġmagical": 1730,
      "Ġve": 1731,
      "Ġprincess": 1732,
      "Ġele": 1733,
      "Ġsmart": 1734,
      "Ġstu": 1735,
      "ĠMama": 1736,
      "Ġbike": 1737,
      "Ġdangerous": 1738,
      "ĠJust": 1739,
      "Ġsign": 1740,
      "Ġdragon": 1741,
      "Ġacross": 1742,
      "Ġmonkey": 1743,
      "Ġbar": 1744,
      "Ġeverywhere": 1745,
      "Ġmost": 1746,
      "Ġhelping": 1747,
      "Ġnap": 1748,
      "Ġfarmer": 1749,
      "outh": 1750,
      "Ġem": 1751,
      "Ġmouth": 1752,
      "Why": 1753,
      "set": 1754,
      "Ġdisapp": 1755,
      "Ġpa": 1756,
      "Ġwords": 1757,
      "Ġje": 1758,
      "ipped": 1759,
      "Sure": 1760,
      "Ġstre": 1761,
      "ored": 1762,
      "Ġtower": 1763,
      "ming": 1764,
      "eared": 1765,
      "Hi": 1766,
      "Ġthrew": 1767,
      "Ġstepped": 1768,
      "Ġheavy": 1769,
      "Ġdolls": 1770,
      "Ġpass": 1771,
      "Ġbite": 1772,
      "de": 1773,
      "Ġbowl": 1774,
      "Ġdirty": 1775,
      "Ġtwins": 1776,
      "Ġsame": 1777,
      "Ġcrying": 1778,
      "Ġbee": 1779,
      "Ġspr": 1780,
      "Ġdoctor": 1781,
      "ident": 1782,
      "Ġacc": 1783,
      "Ġbelieve": 1784,
      "Ġwouldn": 1785,
      "Ġbath": 1786,
      "Ġheal": 1787,
      "chool": 1788,
      "ĠGrandma": 1789,
      "Ġhig": 1790,
      "bble": 1791,
      "Ġclosed": 1792,
      "Ġcarrot": 1793,
      "Ġheart": 1794,
      "Ġstuck": 1795,
      "cked": 1796,
      "Ġcour": 1797,
      "Ġfruit": 1798,
      "Ġbuck": 1799,
      "Ġmin": 1800,
      "Ġatt": 1801,
      "Ġteac": 1802,
      "Ġschool": 1803,
      "Ġbrown": 1804,
      "Ġhoped": 1805,
      "asket": 1806,
      "iting": 1807,
      "Ġsuddenly": 1808,
      "Ġbasket": 1809,
      "Ġfeels": 1810,
      "Ġmix": 1811,
      "Ġchair": 1812,
      "Ġeating": 1813,
      "Ġtown": 1814,
      "ĠEmma": 1815,
      "Ġcourse": 1816,
      "Ġcray": 1817,
      "Ġclapped": 1818,
      "Ġcoll": 1819,
      "Ġgentle": 1820,
      "Ġfairy": 1821,
      "pping": 1822,
      "Ġbutt": 1823,
      "Ġpack": 1824,
      "ventually": 1825,
      "Ġstand": 1826,
      "ier": 1827,
      "Ġdrove": 1828,
      "ors": 1829,
      "ĠJimmy": 1830,
      "Ġpushed": 1831,
      "br": 1832,
      "Ben": 1833,
      "issed": 1834,
      "Ġwelcome": 1835,
      "ts": 1836,
      "Ġswings": 1837,
      "Ġwithout": 1838,
      "ĠInside": 1839,
      "Ġhigher": 1840,
      "Ġtoday": 1841,
      "Ġneigh": 1842,
      "Ġpocket": 1843,
      "orrow": 1844,
      "Ġhit": 1845,
      "Ġteacher": 1846,
      "Ġneighb": 1847,
      "Ġpers": 1848,
      "ord": 1849,
      "Ġsmo": 1850,
      "Ġgames": 1851,
      "ourn": 1852,
      "Ġpiece": 1853,
      "ract": 1854,
      "Ġcheered": 1855,
      "Ġwings": 1856,
      "Ġforget": 1857,
      "Ġben": 1858,
      "Ġexplained": 1859,
      "Ġjourn": 1860,
      "Ġyard": 1861,
      "Ġlonger": 1862,
      "Ġfree": 1863,
      "ible": 1864,
      "Ġcorn": 1865,
      "Ġaccident": 1866,
      "ead": 1867,
      "ho": 1868,
      "Ġdry": 1869,
      "Ġalong": 1870,
      "umb": 1871,
      "ĠMum": 1872,
      "ment": 1873,
      "ĠTheir": 1874,
      "cy": 1875,
      "Ġnoises": 1876,
      "itting": 1877,
      "Ġneck": 1878,
      "Ġsang": 1879,
      "Ġinst": 1880,
      "Ġlate": 1881,
      "Ġhappen": 1882,
      "Ġthrow": 1883,
      "Anna": 1884,
      "Ġhugs": 1885,
      "Ġyoung": 1886,
      "Ġturns": 1887,
      "Ġstories": 1888,
      "vel": 1889,
      "Ġshoes": 1890,
      "phant": 1891,
      "Ġlon": 1892,
      "Ġmiss": 1893,
      "Ġadventures": 1894,
      "Ġsinging": 1895,
      "ĠOn": 1896,
      "Ġtrou": 1897,
      "Ġwell": 1898,
      "Ġsea": 1899,
      "Ġlunch": 1900,
      "Ġapple": 1901,
      "Ġupset": 1902,
      "Ġlonely": 1903,
      "Ġkey": 1904,
      "ches": 1905,
      "ĠO": 1906,
      "Ġbelong": 1907,
      "bby": 1908,
      "oun": 1909,
      "Ġdist": 1910,
      "Ġsecret": 1911,
      "Ġstreet": 1912,
      "Ġplac": 1913,
      "Ġelephant": 1914,
      "Ġtom": 1915,
      "Ġwish": 1916,
      "Ġfence": 1917,
      "Ġmine": 1918,
      "ountain": 1919,
      "Ġmat": 1920,
      "ek": 1921,
      "Ġshap": 1922,
      "Ġshook": 1923,
      "Ġexploring": 1924,
      "Ġmoved": 1925,
      "Ġpurp": 1926,
      "Ġyear": 1927,
      "aughty": 1928,
      "Ġnearby": 1929,
      "Ġnaughty": 1930,
      "Ġstar": 1931,
      "Ġsoup": 1932,
      "Ġshop": 1933,
      "Ġwise": 1934,
      "Ġstars": 1935,
      "Ġowl": 1936,
      "Ġbring": 1937,
      "fused": 1938,
      "Ġjar": 1939,
      "bow": 1940,
      "ocked": 1941,
      "ĠFluffy": 1942,
      "Ġinv": 1943,
      "Ġexp": 1944,
      "Ġwhe": 1945,
      "yard": 1946,
      "Ġcaught": 1947,
      "Do": 1948,
      "ward": 1949,
      "Ġbackyard": 1950,
      "Ġseemed": 1951,
      "ĠTw": 1952,
      "ail": 1953,
      "Ġes": 1954,
      "Ġrelie": 1955,
      "Ġdropped": 1956,
      "Ġph": 1957,
      "Ġrocks": 1958,
      "aughter": 1959,
      "llo": 1960,
      "Ġdrink": 1961,
      "Ġbucket": 1962,
      "Ġdes": 1963,
      "adow": 1964,
      "ces": 1965,
      "Ġpurple": 1966,
      "Ġswam": 1967,
      "Ġfarm": 1968,
      "Ġresp": 1969,
      "ĠThank": 1970,
      "Ġtaking": 1971,
      "Ġmail": 1972,
      "Ġorange": 1973,
      "Ġthough": 1974,
      "ions": 1975,
      "Ġshapes": 1976,
      "sy": 1977,
      "ĠSammy": 1978,
      "Ġpast": 1979,
      "col": 1980,
      "Ġcow": 1981,
      "Ġwoke": 1982,
      "Ġbench": 1983,
      "Ġsounds": 1984,
      "Ġaf": 1985,
      "ung": 1986,
      "ity": 1987,
      "Ġwondered": 1988,
      "Ġbusy": 1989,
      "Ġfit": 1990,
      "Ġtiny": 1991,
      "Ġob": 1992,
      "ĠLater": 1993,
      "Ġnose": 1994,
      "Ġsitting": 1995,
      "Ġnest": 1996,
      "Ġrainbow": 1997,
      "ese": 1998,
      "Ġdaughter": 1999,
      "Ġtakes": 2000,
      "Ġmark": 2001,
      "Ġmad": 2002,
      "fish": 2003,
      "Ġcou": 2004,
      "Ġkite": 2005,
      "to": 2006,
      "read": 2007,
      "Ġholding": 2008,
      "Ġnothing": 2009,
      "Ġcomes": 2010,
      "Ġjuice": 2011,
      "Ġarms": 2012,
      "thday": 2013,
      "Ġpig": 2014,
      "og": 2015,
      "Ġcoat": 2016,
      "ining": 2017,
      "Ġcir": 2018,
      "ĠWith": 2019,
      "Ġbranch": 2020,
      "raid": 2021,
      "Ġrelieved": 2022,
      "pper": 2023,
      "ose": 2024,
      "Ġafraid": 2025,
      "cing": 2026,
      "idge": 2027,
      "Ġdriver": 2028,
      "Ġmil": 2029,
      "Ġforever": 2030,
      "vered": 2031,
      "Ġspoon": 2032,
      "ĠEll": 2033,
      "Sara": 2034,
      "Ġcute": 2035,
      "Ġcarry": 2036,
      "Ġgift": 2037,
      "Ġsick": 2038,
      "Ġboun": 2039,
      "ale": 2040,
      "Ġlift": 2041,
      "sting": 2042,
      "Ġpeace": 2043,
      "Ġpromise": 2044,
      "Of": 2045,
      "ours": 2046,
      "Ġhuge": 2047,
      "Ġact": 2048,
      "Ġtouched": 2049,
      "Ġpatient": 2050,
      "unt": 2051,
      "Ġking": 2052,
      "Ġround": 2053,
      "cer": 2054,
      "sc": 2055,
      "Ġhello": 2056,
      "ĠCome": 2057,
      "Ġbirthday": 2058,
      "Ġfing": 2059,
      "Ġletter": 2060,
      "Ġgrab": 2061,
      "Ġintere": 2062,
      "Ġexciting": 2063,
      "let": 2064,
      "Ġsunny": 2065,
      "Ġcheese": 2066,
      "Tim": 2067,
      "ĠTweet": 2068,
      "eth": 2069,
      "Ġonto": 2070,
      "Ġbush": 2071,
      "Ġlaughing": 2072,
      "Ġdays": 2073,
      "board": 2074,
      "Ġjourney": 2075,
      "Ġgigg": 2076,
      "Ġband": 2077,
      "Ġcreature": 2078,
      "ĠAl": 2079,
      "Ġdisco": 2080,
      "ĠWh": 2081,
      "ittens": 2082,
      "Ġbread": 2083,
      "Hey": 2084,
      "arp": 2085,
      "Ġret": 2086,
      "ped": 2087,
      "Ġimag": 2088,
      "shine": 2089,
      "Ġlife": 2090,
      "Ġkick": 2091,
      "gged": 2092,
      "Ġhope": 2093,
      "Ġpower": 2094,
      "Ġcraw": 2095,
      "ĠJenny": 2096,
      "Ġshell": 2097,
      "Ġcozy": 2098,
      "Ġswimming": 2099,
      "Ġinc": 2100,
      "Ġbottle": 2101,
      "Ġmist": 2102,
      "Ġsharp": 2103,
      "Ġwra": 2104,
      "Ġsuc": 2105,
      "Ġcomfort": 2106,
      "gg": 2107,
      "ness": 2108,
      "Ġinstead": 2109,
      "Ġwhist": 2110,
      "Ġmilk": 2111,
      "Ġwatching": 2112,
      "Ġreturn": 2113,
      "Ġear": 2114,
      "ĠEmily": 2115,
      "Ġspin": 2116,
      "alm": 2117,
      "Ġaccidentally": 2118,
      "Ġeas": 2119,
      "Ġsunshine": 2120,
      "ten": 2121,
      "Ġcave": 2122,
      "pa": 2123,
      "Ġspo": 2124,
      "Ġputs": 2125,
      "Ġlucky": 2126,
      "Ġtalked": 2127,
      "Ġhoney": 2128,
      "Ġpudd": 2129,
      "Ġpointed": 2130,
      "Ġgives": 2131,
      "Ġcollect": 2132,
      "Ġgather": 2133,
      "itch": 2134,
      "Ġroad": 2135,
      "Ġent": 2136,
      "Ġsmiling": 2137,
      "Ġbought": 2138,
      "Ġanyone": 2139,
      "Ġhor": 2140,
      "Ġsearched": 2141,
      "Ġlater": 2142,
      "ĠCh": 2143,
      "Ġce": 2144,
      "Ġfan": 2145,
      "Ġsandw": 2146,
      "ball": 2147,
      "round": 2148,
      "itten": 2149,
      "Ġapples": 2150,
      "els": 2151,
      "blem": 2152,
      "irt": 2153,
      "Ġproblem": 2154,
      "Ġmeet": 2155,
      "ize": 2156,
      "Ġmach": 2157,
      "Ġwom": 2158,
      "Ġloves": 2159,
      "Ġinteresting": 2160,
      "ÅĵI": 2161,
      "Good": 2162,
      "Ġwoman": 2163,
      "Ġplane": 2164,
      "Ġkiss": 2165,
      "Ġpres": 2166,
      "Ġhealthy": 2167,
      "eb": 2168,
      "Ġpile": 2169,
      "Ġtasty": 2170,
      "Ġducks": 2171,
      "Ġvill": 2172,
      "Ġwide": 2173,
      "ove": 2174,
      "ont": 2175,
      "amed": 2176,
      "ub": 2177,
      "aur": 2178,
      "Ġadm": 2179,
      "Ġeag": 2180,
      "Ġspid": 2181,
      "Ġclever": 2182,
      "Ġcrayons": 2183,
      "Ġprot": 2184,
      "Ġmatter": 2185,
      "Ġtrouble": 2186,
      "erly": 2187,
      "ndpa": 2188,
      "Ġzoom": 2189,
      "Ġclouds": 2190,
      "owed": 2191,
      "Ġstorm": 2192,
      "Ġperson": 2193,
      "Ġpath": 2194,
      "cks": 2195,
      "Ġpill": 2196,
      "Ġfeather": 2197,
      "Ġrope": 2198,
      "Ġpop": 2199,
      "Ġshining": 2200,
      "Ġprotect": 2201,
      "Ġsmelled": 2202,
      "Ġfront": 2203,
      "Ġhon": 2204,
      "Ġbutton": 2205,
      "ĠHow": 2206,
      "Ġpract": 2207,
      "Ġspotted": 2208,
      "Ġscreamed": 2209,
      "Ġzoo": 2210,
      "Ġminut": 2211,
      "Ġpresent": 2212,
      "Come": 2213,
      "Ġap": 2214,
      "Ġmud": 2215,
      "Ġval": 2216,
      "Ġrespect": 2217,
      "Ġsaf": 2218,
      "ĠSomet": 2219,
      "Ġdanced": 2220,
      "Ġcheer": 2221,
      "Ġorgan": 2222,
      "Ġpar": 2223,
      "Ġquest": 2224,
      "ond": 2225,
      "Ġappeared": 2226,
      "ĠJake": 2227,
      "Ġwhich": 2228,
      "Ġpuzz": 2229,
      "Ġseat": 2230,
      "Ġteach": 2231,
      "Ġmyster": 2232,
      "Ġsnowman": 2233,
      "isa": 2234,
      "Ġsnake": 2235,
      "Ġthin": 2236,
      "ert": 2237,
      "Ġwild": 2238,
      "Ġasleep": 2239,
      "Ġlovely": 2240,
      "Ġsur": 2241,
      "Ġanswer": 2242,
      "epend": 2243,
      "ĠTogether": 2244,
      "Ġwearing": 2245,
      "ĠMittens": 2246,
      "Ġgently": 2247,
      "Ġneighbor": 2248,
      "oose": 2249,
      "Ġbark": 2250,
      "Ġhorse": 2251,
      "Ġgiant": 2252,
      "ĠSt": 2253,
      "Ġplaces": 2254,
      "Ġgoes": 2255,
      "Ġwhole": 2256,
      "ĠRe": 2257,
      "Ġsearch": 2258,
      "ĠAnn": 2259,
      "Ġsplas": 2260,
      "up": 2261,
      "Ġcorner": 2262,
      "Ġimpress": 2263,
      "ular": 2264,
      "Ġdirt": 2265,
      "Ġmed": 2266,
      "Ġshr": 2267,
      "een": 2268,
      "Ġtries": 2269,
      "Ġtrip": 2270,
      "Ġconfused": 2271,
      "Ġlive": 2272,
      "Ġmind": 2273,
      "Ġdi": 2274,
      "ato": 2275,
      "Ġrolled": 2276,
      "Ġcard": 2277,
      "Ġslid": 2278,
      "Ġtasted": 2279,
      "nic": 2280,
      "cean": 2281,
      "Ġash": 2282,
      "Ġocean": 2283,
      "Ġsupp": 2284,
      "Ġforgive": 2285,
      "Ġpicnic": 2286,
      "ĠGo": 2287,
      "ĠLe": 2288,
      "Ġca": 2289,
      "Ġrude": 2290,
      "Ġmachine": 2291,
      "Ġspent": 2292,
      "Ġdrive": 2293,
      "Ġteeth": 2294,
      "Ġser": 2295,
      "ssed": 2296,
      "itty": 2297,
      "Jo": 2298,
      "Ġphone": 2299,
      "Ġoven": 2300,
      "Ġpan": 2301,
      "Ġpour": 2302,
      "Ġlast": 2303,
      "la": 2304,
      "Ġcalm": 2305,
      "Ġpretended": 2306,
      "Ġdelight": 2307,
      "ĠLisa": 2308,
      "Ġcookie": 2309,
      "Ġfurry": 2310,
      "Ġspider": 2311,
      "izz": 2312,
      "Ġfeet": 2313,
      "Ġfaces": 2314,
      "unk": 2315,
      "Ġlay": 2316,
      "Ġworm": 2317,
      "Ġring": 2318,
      "Ġrec": 2319,
      "umber": 2320,
      "Ġhelpful": 2321,
      "Ġlad": 2322,
      "ĠBe": 2323,
      "Ġeventually": 2324,
      "Ġwip": 2325,
      "Ġchick": 2326,
      "Ġwave": 2327,
      "Ġmountain": 2328,
      "Ġsal": 2329,
      "Ġban": 2330,
      "Ġemb": 2331,
      "Ġtalking": 2332,
      "ones": 2333,
      "Ġrob": 2334,
      "Ġfold": 2335,
      "Ġshy": 2336,
      "Ġcart": 2337,
      "Ġtomorrow": 2338,
      "Ġsel": 2339,
      "Ġchocol": 2340,
      "Ġtid": 2341,
      "Ġspread": 2342,
      "Ġvillage": 2343,
      "ĠPeter": 2344,
      "arge": 2345,
      "ife": 2346,
      "Ġremind": 2347,
      "Ġign": 2348,
      "Ġbubble": 2349,
      "Ġtun": 2350,
      "Ġcoin": 2351,
      "Ġfoot": 2352,
      "Ġcouch": 2353,
      "Ġwrite": 2354,
      "Ġpush": 2355,
      "Ġladder": 2356,
      "Ġbuilding": 2357,
      "Ġfighting": 2358,
      "Ġsmooth": 2359,
      "ĠSometimes": 2360,
      "Ġtreats": 2361,
      "Ġwore": 2362,
      "Ġchased": 2363,
      "Ġtool": 2364,
      "ighed": 2365,
      "Ġblew": 2366,
      "Ġstret": 2367,
      "lex": 2368,
      "arra": 2369,
      "Ġbugs": 2370,
      "per": 2371,
      "My": 2372,
      "Ġembarra": 2373,
      "Ġhiding": 2374,
      "Ġpool": 2375,
      "Ġcross": 2376,
      "Ġ'": 2377,
      "Ġwaiting": 2378,
      "oph": 2379,
      "Ġknee": 2380,
      "Ġrobot": 2381,
      "Ġneckl": 2382,
      "Ġstep": 2383,
      "Ġpuddle": 2384,
      "mo": 2385,
      "Ġfinish": 2386,
      "Ġshelf": 2387,
      "Ġbell": 2388,
      "Ġcoo": 2389,
      "not": 2390,
      "als": 2391,
      "Ġsongs": 2392,
      "Ġstir": 2393,
      "ator": 2394,
      "Ġwhenever": 2395,
      "Ġselfish": 2396,
      "Ġant": 2397,
      "Ġmaybe": 2398,
      "Ġcannot": 2399,
      "Ġstring": 2400,
      "Ġstra": 2401,
      "Ġchocolate": 2402,
      "ĠEverywhere": 2403,
      "ult": 2404,
      "Ġsol": 2405,
      "Ġtaste": 2406,
      "Ġspe": 2407,
      "Ġrep": 2408,
      "ĠTeddy": 2409,
      "Ġhum": 2410,
      "Ġple": 2411,
      "Ġlarge": 2412,
      "Ġpaw": 2413,
      "Ġnet": 2414,
      "box": 2415,
      "Ġsack": 2416,
      "Ġleaf": 2417,
      "Ġscar": 2418,
      "Ġfixed": 2419,
      "lebr": 2420,
      "Ġbarked": 2421,
      "Ġtidy": 2422,
      "umpy": 2423,
      "Ġbanan": 2424,
      "Ġwash": 2425,
      "Ġspray": 2426,
      "Ġstone": 2427,
      "Ġcelebr": 2428,
      "old": 2429,
      "ĠSus": 2430,
      "Ġgen": 2431,
      "Ġcloth": 2432,
      "Please": 2433,
      "ĠBu": 2434,
      "Ġcrab": 2435,
      "Ġpeaceful": 2436,
      "Ġcolour": 2437,
      "St": 2438,
      "nny": 2439,
      "ungle": 2440,
      "ĠPlease": 2441,
      "Ġhel": 2442,
      "ush": 2443,
      "ird": 2444,
      "oin": 2445,
      "Ġmissed": 2446,
      "Ġdeter": 2447,
      "Ġjungle": 2448,
      "iger": 2449,
      "arm": 2450,
      "Ġlanded": 2451,
      "Ġdeterm": 2452,
      "Ġforward": 2453,
      "Ġembarrassed": 2454,
      "ĠSome": 2455,
      "Ġnecklace": 2456,
      "Ġhonest": 2457,
      "Ġjumping": 2458,
      "airs": 2459,
      "elly": 2460,
      "Ġbat": 2461,
      "Ġdecor": 2462,
      "dge": 2463,
      "Ġtrust": 2464,
      "Ġhears": 2465,
      "Ġmoon": 2466,
      "orry": 2467,
      "Ġsticks": 2468,
      "ĠTV": 2469,
      "Ġshirt": 2470,
      "Ġcreative": 2471,
      "Ġsharing": 2472,
      "Joh": 2473,
      "aking": 2474,
      "Ġtea": 2475,
      "most": 2476,
      "Ġknocked": 2477,
      "Ġcarrots": 2478,
      "Ġdisappoin": 2479,
      "Ġsuccess": 2480,
      "ĠDon": 2481,
      "Ġmeadow": 2482,
      "ying": 2483,
      "ĠEven": 2484,
      "getable": 2485,
      "Ġwhis": 2486,
      "Ġstood": 2487,
      "Ġgener": 2488,
      "Ġvegetable": 2489,
      "ĠWhile": 2490,
      "Ġbal": 2491,
      "Ġmeant": 2492,
      "Ġlegs": 2493,
      "Ġtightly": 2494,
      "ĠLittle": 2495,
      "Ġbreath": 2496,
      "Ġplate": 2497,
      "Ġalmost": 2498,
      "Ġashamed": 2499,
      "ned": 2500,
      "Ġemp": 2501,
      "Ġsour": 2502,
      "Ġgray": 2503,
      "dle": 2504,
      "Ġgrew": 2505,
      "Ġtells": 2506,
      "Ġempty": 2507,
      "Ġpillow": 2508,
      "ĠZ": 2509,
      "ground": 2510,
      "ony": 2511,
      "Ġgas": 2512,
      "Ġsplash": 2513,
      "Ġwhistle": 2514,
      "ĠMummy": 2515,
      "ian": 2516,
      "Ġunderstood": 2517,
      "Ġsheep": 2518,
      "Ġber": 2519,
      "ĠJohnny": 2520,
      "Ġcarried": 2521,
      "den": 2522,
      "Ġyelled": 2523,
      "ĠWhy": 2524,
      "Ġlem": 2525,
      "ustr": 2526,
      "arl": 2527,
      "Ġnods": 2528,
      "vous": 2529,
      "Ġsave": 2530,
      "Ġpolice": 2531,
      "Ġdisappointed": 2532,
      "Ġsnacks": 2533,
      "Ġhours": 2534,
      "Ġnut": 2535,
      "ital": 2536,
      "Ġjew": 2537,
      "Ġthese": 2538,
      "ĠAlice": 2539,
      "hin": 2540,
      "ork": 2541,
      "Ġhosp": 2542,
      "ets": 2543,
      "ĠBo": 2544,
      "Ġsparkly": 2545,
      "Ġgold": 2546,
      "Where": 2547,
      "erp": 2548,
      "Ġhospital": 2549,
      "Ġkitten": 2550,
      "Sam": 2551,
      "Ġship": 2552,
      "Ġpay": 2553,
      "ina": 2554,
      "Ġbored": 2555,
      "urse": 2556,
      "Ġline": 2557,
      "Ġgenerous": 2558,
      "Ġfrustr": 2559,
      "Ġtest": 2560,
      "Ġhidden": 2561,
      "Ġtaught": 2562,
      "John": 2563,
      "Ġstanding": 2564,
      "Ġrad": 2565,
      "Ġscarf": 2566,
      "ĠLeo": 2567,
      "iff": 2568,
      "Ġchew": 2569,
      "Ġreturned": 2570,
      "Ġminutes": 2571,
      "Ġpizz": 2572,
      "Ġknowing": 2573,
      "Ġgroup": 2574,
      "Ġhur": 2575,
      "Ġplants": 2576,
      "Ġeasy": 2577,
      "Ġblow": 2578,
      "Ġbedroom": 2579,
      "Ġpolite": 2580,
      "Ġmysterious": 2581,
      "Ġwaves": 2582,
      "Ġglass": 2583,
      "Ġsighed": 2584,
      "ĠRex": 2585,
      "Ġshore": 2586,
      "Ġpri": 2587,
      "Ġseed": 2588,
      "Ġwolf": 2589,
      "Ġseek": 2590,
      "Ġdetermined": 2591,
      "kin": 2592,
      "Stop": 2593,
      "Ġpuzzle": 2594,
      "Ġpowerful": 2595,
      "Ġthankful": 2596,
      "fl": 2597,
      "Ġclass": 2598,
      "Ġner": 2599,
      "Ġpir": 2600,
      "Ġsandwich": 2601,
      "Ġfig": 2602,
      "ĠBr": 2603,
      "Ġsleepy": 2604,
      "Ġprince": 2605,
      "Ġpassed": 2606,
      "Ġdrew": 2607,
      "'d": 2608,
      "ĠBl": 2609,
      "Ġfinger": 2610,
      "Ġjelly": 2611,
      "Ġpizza": 2612,
      "Ġnervous": 2613,
      "Ġfrustrated": 2614,
      "Ġspicy": 2615,
      "Ġgun": 2616,
      "Ġspoil": 2617,
      "Ġmatch": 2618,
      "Ġfancy": 2619,
      "Ġmessy": 2620,
      "osaur": 2621,
      "work": 2622,
      "Ġgate": 2623,
      "Ġbridge": 2624,
      "Ġlock": 2625,
      "ĠMark": 2626,
      "Ġkissed": 2627,
      "Ġtick": 2628,
      "aul": 2629,
      "Ġcloset": 2630,
      "Ġfear": 2631,
      "Ġreg": 2632,
      "af": 2633,
      "Ġfeed": 2634,
      "Ġmot": 2635,
      "Ġsold": 2636,
      "Ġwis": 2637,
      "ĠSusie": 2638,
      "Ġgathered": 2639,
      "Ġav": 2640,
      "Ġexcite": 2641,
      "Ġpoor": 2642,
      "Ġcirc": 2643,
      "ote": 2644,
      "Ġhang": 2645,
      "Ġcaterp": 2646,
      "Ġcaterpill": 2647,
      "Ġesc": 2648,
      "Ġflag": 2649,
      "oop": 2650,
      "Ġpin": 2651,
      "Ġgrumpy": 2652,
      "Ġvan": 2653,
      "iddle": 2654,
      "ella": 2655,
      "Ġdinosaur": 2656,
      "Ġyourself": 2657,
      "ano": 2658,
      "issors": 2659,
      "uce": 2660,
      "Ġanswered": 2661,
      "Ġcries": 2662,
      "Are": 2663,
      "Ġoften": 2664,
      "itter": 2665,
      "Ġtwirl": 2666,
      "selves": 2667,
      "Ġchest": 2668,
      "sist": 2669,
      "Ġscissors": 2670,
      "Ġhopping": 2671,
      "Ġtears": 2672,
      "pack": 2673,
      "gly": 2674,
      "Sorry": 2675,
      "mb": 2676,
      "Ġmummy": 2677,
      "Ġugly": 2678,
      "Ġburn": 2679,
      "Ġcand": 2680,
      "ensive": 2681,
      "Ġdeer": 2682,
      "Ġdrop": 2683,
      "illed": 2684,
      "Ġfil": 2685,
      "Ġexcitement": 2686,
      "era": 2687,
      "izzy": 2688,
      "Ġcaterpillar": 2689,
      "Ġlit": 2690,
      "Ġworking": 2691,
      "Ġmiddle": 2692,
      "Ġexpensive": 2693,
      "Ġscr": 2694,
      "Ġsaved": 2695,
      "Ġtaken": 2696,
      "Ġok": 2697,
      "Ġtrue": 2698,
      "Ġwagged": 2699,
      "Ġones": 2700,
      "Ġpleased": 2701,
      "Ġcrown": 2702,
      "Ġspend": 2703,
      "Ġboring": 2704,
      "Ġpicks": 2705,
      "Ġleg": 2706,
      "que": 2707,
      "oof": 2708,
      "ugar": 2709,
      "Ġvase": 2710,
      "Ġtent": 2711,
      "Ġasking": 2712,
      "body": 2713,
      "ual": 2714,
      "Ġbrush": 2715,
      "Ġtie": 2716,
      "ates": 2717,
      "Ġvegetables": 2718,
      "ecially": 2719,
      "Ġgiggled": 2720,
      "Ġboss": 2721,
      "ete": 2722,
      "Who": 2723,
      "Ġmistake": 2724,
      "Ġcage": 2725,
      "ser": 2726,
      "Ġgets": 2727,
      "light": 2728,
      "Ġrocket": 2729,
      "There": 2730,
      "Ġcap": 2731,
      "Ġmir": 2732,
      "Ġcomfortable": 2733,
      "Ġsugar": 2734,
      "Ġeld": 2735,
      "Ġstuff": 2736,
      "Ġpacked": 2737,
      "Ġdancing": 2738,
      "pecially": 2739,
      "Ġespecially": 2740,
      "ĠToday": 2741,
      "Ġwander": 2742,
      "Ġclown": 2743,
      "Ġmedic": 2744,
      "Ġnumber": 2745,
      "Ġpress": 2746,
      "Ġsight": 2747,
      "ĠDan": 2748,
      "Ġknight": 2749,
      "ggs": 2750,
      "ots": 2751,
      "Ġfruits": 2752,
      "iness": 2753,
      "ĠEventually": 2754,
      "Ġeggs": 2755,
      "Ġlying": 2756,
      "Ġdrum": 2757,
      "Ġpus": 2758,
      "ĠBobby": 2759,
      "Ġfake": 2760,
      "Ġdest": 2761,
      "ror": 2762,
      "Ġmedicine": 2763,
      "Ġwalks": 2764,
      "Ġdistance": 2765,
      "aged": 2766,
      "Ġglue": 2767,
      "Ġsplashed": 2768,
      "Ġsweetie": 2769,
      "Ġbake": 2770,
      "Ġflut": 2771,
      "Ġbone": 2772,
      "ĠBlue": 2773,
      "ĠNo": 2774,
      "Ġdrawing": 2775,
      "Ġmoving": 2776,
      "Ġdisappeared": 2777,
      "ĠU": 2778,
      "Ġweek": 2779,
      "ĠOK": 2780,
      "Ġlead": 2781,
      "Ġsmelly": 2782,
      "Ġclap": 2783,
      "Ġbecome": 2784,
      "Ġlemon": 2785,
      "Ġchange": 2786,
      "ĠKitty": 2787,
      "Ġpray": 2788,
      "Ġfeathers": 2789,
      "ha": 2790,
      "Ġmoms": 2791,
      "Ġlose": 2792,
      "ĠIf": 2793,
      "Ġmov": 2794,
      "Ġlicked": 2795,
      "Ġcalling": 2796,
      "Ġtwist": 2797,
      "Ġdogs": 2798,
      "Ġbathroom": 2799,
      "Ġplayground": 2800,
      "ory": 2801,
      "yal": 2802,
      "Ġfis": 2803,
      "Ġlazy": 2804,
      "Ġroar": 2805,
      "Ġelderly": 2806,
      "Ġweak": 2807,
      "Ġincred": 2808,
      "Ġcri": 2809,
      "Ġgar": 2810,
      "?\".": 2811,
      "Now": 2812,
      "Ġbody": 2813,
      "Ġhorn": 2814,
      "Ġexam": 2815,
      "Ġcrack": 2816,
      "Ġquestions": 2817,
      "Ġadd": 2818,
      "Ġwrote": 2819,
      "Ġyog": 2820,
      "Ġyours": 2821,
      "Ġnoisy": 2822,
      "Ġfather": 2823,
      "Ġmirror": 2824,
      "uggest": 2825,
      "Ġmic": 2826,
      "Ġnod": 2827,
      "Ġsuggest": 2828,
      "ĠFred": 2829,
      "ating": 2830,
      "elp": 2831,
      "ĠPete": 2832,
      "eez": 2833,
      "Ġfluffy": 2834,
      "Ġskipped": 2835,
      "Ġed": 2836,
      "Ġwheel": 2837,
      "Ġeager": 2838,
      "Ġloyal": 2839,
      "Ġlamp": 2840,
      "Ġdish": 2841,
      "Ġext": 2842,
      "Ġclear": 2843,
      "Ġfamous": 2844,
      "land": 2845,
      "ĠEnd": 2846,
      "Ġdig": 2847,
      "Ġstones": 2848,
      "Ġruined": 2849,
      "ination": 2850,
      "Ġrich": 2851,
      "Ġrare": 2852,
      "Ġord": 2853,
      "Ġtape": 2854,
      "ĠMandy": 2855,
      "Ġsell": 2856,
      "Ġdrank": 2857,
      "Ġcontent": 2858,
      "Ġfigure": 2859,
      "Ġqueen": 2860,
      "ĠEllie": 2861,
      "Ġmarch": 2862,
      "Ġincredible": 2863,
      "Ġglow": 2864,
      "Ġmap": 2865,
      "Ġshows": 2866,
      "Ġrid": 2867,
      "ti": 2868,
      "Ġcheck": 2869,
      "Ġjuicy": 2870,
      "Ġsoap": 2871,
      "Ġcovered": 2872,
      "Ġind": 2873,
      "Ġballs": 2874,
      "Ġsailed": 2875,
      "Ġrelax": 2876,
      "Ġaw": 2877,
      "Ġshoot": 2878,
      "illi": 2879,
      "hip": 2880,
      "Ġteam": 2881,
      "ately": 2882,
      "Ġmeasure": 2883,
      "Ġdecide": 2884,
      "Ġrealised": 2885,
      "umbled": 2886,
      "Ġdiscovered": 2887,
      "Ġcoins": 2888,
      "Ġneeds": 2889,
      "Ġborrow": 2890,
      "Ġswan": 2891,
      "Ġstraw": 2892,
      "fic": 2893,
      "Ġadventur": 2894,
      "cept": 2895,
      "Help": 2896,
      "Ġcleaned": 2897,
      "Ġbranches": 2898,
      "Ġtowel": 2899,
      "Ġboys": 2900,
      "Ġextra": 2901,
      "Ġham": 2902,
      "asing": 2903,
      "Be": 2904,
      "imp": 2905,
      "ĠElla": 2906,
      "Well": 2907,
      "Ġboard": 2908,
      "Ġchicken": 2909,
      "Ġbarn": 2910,
      "Ġmod": 2911,
      "Ġtiger": 2912,
      "Ġmotor": 2913,
      "Ġtag": 2914,
      "Ġadventurous": 2915,
      "Ġjoke": 2916,
      "Ġdiffic": 2917,
      "Ġoffered": 2918,
      "Ġfine": 2919,
      "keep": 2920,
      "Ġbalance": 2921,
      "Ġlifted": 2922,
      "ĠBrown": 2923,
      "ique": 2924,
      "Ġbubbles": 2925,
      "Ġcolourful": 2926,
      "ĠMar": 2927,
      "Ġfrown": 2928,
      "Ġturt": 2929,
      "Ġeye": 2930,
      "Ġthick": 2931,
      "ĠRose": 2932,
      "Ġdifficult": 2933,
      "Ġbottom": 2934,
      "Ġtrack": 2935,
      "Ġtoug": 2936,
      "alous": 2937,
      "Ġorganized": 2938,
      "Ġcover": 2939,
      "Ġhappening": 2940,
      "Ġunique": 2941,
      "rag": 2942,
      "Ġjealous": 2943,
      "Ġdolp": 2944,
      "Ġhose": 2945,
      "port": 2946,
      "Ġknife": 2947,
      "ĠBella": 2948,
      "Ġweird": 2949,
      "Ġisland": 2950,
      "ĠBobo": 2951,
      "cil": 2952,
      "Ġgarage": 2953,
      "Ġfright": 2954,
      "Ġmanaged": 2955,
      "imed": 2956,
      "Ġhurts": 2957,
      "Ġpencil": 2958,
      "Ġword": 2959,
      "ject": 2960,
      "Ġcrawled": 2961,
      "Ġcost": 2962,
      "Ġlearning": 2963,
      "Ġarg": 2964,
      "Me": 2965,
      "Ġcircle": 2966,
      "ĠMrs": 2967,
      "Ġsaying": 2968,
      "Ġkindness": 2969,
      "ured": 2970,
      "Ġberries": 2971,
      "Ġonce": 2972,
      "Ġtough": 2973,
      "olog": 2974,
      "Ġmighty": 2975,
      "Ġballoons": 2976,
      "Ġpointing": 2977,
      "Ġchase": 2978,
      "Ġbald": 2979,
      "Ġfavour": 2980,
      "ready": 2981,
      "Ġwand": 2982,
      "ddy": 2983,
      "Ġter": 2984,
      "lies": 2985,
      "keeper": 2986,
      "Ġshake": 2987,
      "iv": 2988,
      "Ġjewel": 2989,
      "Ġlouder": 2990,
      "ipper": 2991,
      "Ġadded": 2992,
      "ages": 2993,
      "Ġbatter": 2994,
      "Ġsil": 2995,
      "Ġhunt": 2996,
      "Ġguit": 2997,
      "Ġharder": 2998,
      "Ġguess": 2999,
      "Ġapolog": 3000,
      "Ġunus": 3001,
      "Ġedge": 3002,
      "head": 3003,
      "Ġalready": 3004,
      "Ġfour": 3005,
      "Ġang": 3006,
      "ĠTweety": 3007,
      "Ġspun": 3008,
      "Ġfavourite": 3009,
      "Ġfool": 3010,
      "Ġnorm": 3011,
      "Ġwhale": 3012,
      "ipp": 3013,
      "Ġunusual": 3014,
      "Ġlibr": 3015,
      "Ġvalu": 3016,
      "rage": 3017,
      "alk": 3018,
      "Ġenjoying": 3019,
      "Ġdizzy": 3020,
      "aw": 3021,
      "Ġhats": 3022,
      "Ġpump": 3023,
      "Ġbelonged": 3024,
      "Ġgrace": 3025,
      "Ġwrapped": 3026,
      "Ġcheerful": 3027,
      "Ġsmoke": 3028,
      "uggled": 3029,
      "Ġimpressed": 3030,
      "Ġstrawber": 3031,
      "ĠMike": 3032,
      "Ġtrucks": 3033,
      "Ġrecord": 3034,
      "Ġgiving": 3035,
      "Ġsword": 3036,
      "Ġmarket": 3037,
      "Ġgrown": 3038,
      "Ġref": 3039,
      "ĠGrandpa": 3040,
      "Ġlaughs": 3041,
      "Ġtrunk": 3042,
      "Ġnormal": 3043,
      "anged": 3044,
      "ĠFr": 3045,
      "Ġgrand": 3046,
      "Ġhero": 3047,
      "Ġears": 3048,
      "Ġguitar": 3049,
      "Ġloudly": 3050,
      "ola": 3051,
      "illiant": 3052,
      "Ġharm": 3053,
      "Ġturtle": 3054,
      "Lila": 3055,
      "Ġbanana": 3056,
      "Here": 3057,
      "Ġproudly": 3058,
      "Ġboxes": 3059,
      "Ġscare": 3060,
      "ature": 3061,
      "ilt": 3062,
      "Ġbrilliant": 3063,
      "Ġchoose": 3064,
      "Ġbrothers": 3065,
      "ery": 3066,
      "Ġcircles": 3067,
      "Ġwhisp": 3068,
      "Ġterri": 3069,
      "Ġbossy": 3070,
      "Ġdreamed": 3071,
      "Ġagainst": 3072,
      "Ġescape": 3073,
      "ym": 3074,
      "Ġgoat": 3075,
      "Ġinvited": 3076,
      "Ġskin": 3077,
      "Ġcab": 3078,
      "Ġhelps": 3079,
      "ĠDave": 3080,
      "gy": 3081,
      "cient": 3082,
      "Ġcompet": 3083,
      "Ġpil": 3084,
      "ipe": 3085,
      "Ġpainting": 3086,
      "Ġmeans": 3087,
      "Ġmelt": 3088,
      "Ġfrightened": 3089,
      "ĠSoph": 3090,
      "Ġaccept": 3091,
      "fast": 3092,
      "Ġpee": 3093,
      "Ġflash": 3094,
      "Ġsafely": 3095,
      "Ġdepend": 3096,
      "Ġbuttons": 3097,
      "Ġslipped": 3098,
      "Ġdesign": 3099,
      "Ġstubb": 3100,
      "Ġbirdie": 3101,
      "Ġjack": 3102,
      "Ġwrap": 3103,
      "Ġvaluable": 3104,
      "Ġcabin": 3105,
      "Ġcrayon": 3106,
      "Ġwake": 3107,
      "Ġstream": 3108,
      "Ġwalls": 3109,
      "Ġhappiness": 3110,
      "ouses": 3111,
      "Ġbreakfast": 3112,
      "Ġlog": 3113,
      "erry": 3114,
      "Ġancient": 3115,
      "edient": 3116,
      "Ġstudy": 3117,
      "Ġsuccessful": 3118,
      "Ġclay": 3119,
      "emo": 3120,
      "orge": 3121,
      "Ġknows": 3122,
      "Ġfoolish": 3123,
      "Ġtoast": 3124,
      "Ġfalls": 3125,
      "Ġfridge": 3126,
      "ye": 3127,
      "Ġlean": 3128,
      "ĠNemo": 3129,
      "Ġstubborn": 3130,
      "Ġunl": 3131,
      "ĠMy": 3132,
      "Ġnicely": 3133,
      "atch": 3134,
      "Ġshape": 3135,
      "apping": 3136,
      "omed": 3137,
      "Ġfier": 3138,
      "Ġcudd": 3139,
      "Ġrough": 3140,
      "Ġdreams": 3141,
      "Ġmovie": 3142,
      "Ġspace": 3143,
      "Ġhouses": 3144,
      "Ġcity": 3145,
      "Ġnosy": 3146,
      "Ġbloom": 3147,
      "Ġdelicate": 3148,
      "ĠLola": 3149,
      "Ġobedient": 3150,
      "Ġfierce": 3151,
      "Ġoffice": 3152,
      "Ġtomato": 3153,
      "Ġfat": 3154,
      "Ġgrandpa": 3155,
      "ado": 3156,
      "az": 3157,
      "laimed": 3158,
      "Ġicy": 3159,
      "Ġcompetit": 3160,
      "Ġsuggested": 3161,
      "Ġshark": 3162,
      "Ġdead": 3163,
      "Ġnotice": 3164,
      "Ġwagon": 3165,
      "pes": 3166,
      "Ġexclaimed": 3167,
      "Ġmem": 3168,
      "Ġkinds": 3169,
      "Ġmixed": 3170,
      "Ġwiped": 3171,
      "Ġcher": 3172,
      "Ġuseful": 3173,
      "ext": 3174,
      "Ġpoured": 3175,
      "Ġshells": 3176,
      "uth": 3177,
      "ÅĵLet": 3178,
      "Ġstri": 3179,
      "Ġlights": 3180,
      "Ġlocked": 3181,
      "Ġsounded": 3182,
      "Ġtools": 3183,
      "Ġthu": 3184,
      "Ġstove": 3185,
      "Ġexcitedly": 3186,
      "Ġexplored": 3187,
      "Ġaunt": 3188,
      "wards": 3189,
      "Ġegg": 3190,
      "Ġfrag": 3191,
      "eorge": 3192,
      "Ġrose": 3193,
      "!\".": 3194,
      "Ġson": 3195,
      "oppy": 3196,
      "Ġshadow": 3197,
      "Ġtimes": 3198,
      "Ġcro": 3199,
      "Ġenc": 3200,
      "Ġbags": 3201,
      "Ġfountain": 3202,
      "ention": 3203,
      "oot": 3204,
      "Ġthemselves": 3205,
      "Ġstumbled": 3206,
      "Ġbushes": 3207,
      "arry": 3208,
      "Ġweal": 3209,
      "ache": 3210,
      "dom": 3211,
      "Ġlow": 3212,
      "Ġshowing": 3213,
      "Ġspoiled": 3214,
      "rell": 3215,
      "Ġfingers": 3216,
      "Ġperform": 3217,
      "Ġlab": 3218,
      "Ġabove": 3219,
      "vice": 3220,
      "Ġthoughtful": 3221,
      "Ġresc": 3222,
      "ĠDucky": 3223,
      "Ġindepend": 3224,
      "kn": 3225,
      "Ġsmaller": 3226,
      "Ġwitch": 3227,
      "Ġdough": 3228,
      "na": 3229,
      "Ġfragile": 3230,
      "Ġdependable": 3231,
      "Ġraced": 3232,
      "Ġjog": 3233,
      "ray": 3234,
      "arth": 3235,
      "ĠWhenever": 3236,
      "Ġplayful": 3237,
      "inal": 3238,
      "Ġseem": 3239,
      "Ġhelm": 3240,
      "Ġspinning": 3241,
      "Ġeng": 3242,
      "Ġtele": 3243,
      "corn": 3244,
      "Ġclock": 3245,
      "Ġbrightly": 3246,
      "ines": 3247,
      "Ġprint": 3248,
      "Ġrode": 3249,
      "Ġstretch": 3250,
      "Ġparrot": 3251,
      "ormous": 3252,
      "Ġdelighted": 3253,
      "Ġbuilt": 3254,
      "Ġadmired": 3255,
      "Ġlaw": 3256,
      "Ġenormous": 3257,
      "ĠSn": 3258,
      "Ġkicked": 3259,
      "Ġroof": 3260,
      "Ġcounted": 3261,
      "Ġjam": 3262,
      "Ġswe": 3263,
      "Ġrat": 3264,
      "Ġpractice": 3265,
      "reen": 3266,
      "Ġorig": 3267,
      "Ġways": 3268,
      "Ġchanged": 3269,
      "Ġshone": 3270,
      "Ġsunfl": 3271,
      "Ġcop": 3272,
      "Ġreminded": 3273,
      "Ġtwig": 3274,
      "Ġacorn": 3275,
      "ither": 3276,
      "Ġcam": 3277,
      "ience": 3278,
      "Ġsniff": 3279,
      "Ġzip": 3280,
      "eeze": 3281,
      "Ġhammer": 3282,
      "Ġindependent": 3283,
      "ĠYour": 3284,
      "Ġusing": 3285,
      "ĠCl": 3286,
      "Ġbitter": 3287,
      "Ġhanded": 3288,
      "Ġwhispered": 3289,
      "Ġhoop": 3290,
      "mbrell": 3291,
      "known": 3292,
      "Ġchose": 3293,
      "Ġchir": 3294,
      "anut": 3295,
      "Ġloll": 3296,
      "Ġjolly": 3297,
      "Ġcone": 3298,
      "Ġumbrell": 3299,
      "Ġtunn": 3300,
      "Ġsolve": 3301,
      "Ġstronger": 3302,
      "Ġbees": 3303,
      "Ġserious": 3304,
      "ipop": 3305,
      "Ġoriginal": 3306,
      "Ġtummy": 3307,
      "Ġsteal": 3308,
      "Ġbeak": 3309,
      "Ġbrace": 3310,
      "Ġterrible": 3311,
      "Ġmis": 3312,
      "ÅĵYes": 3313,
      "ĠBill": 3314,
      "Ġpopcorn": 3315,
      "Ġfre": 3316,
      "Ġlollipop": 3317,
      "Ġpainted": 3318,
      "Ġboats": 3319,
      "Ġallowed": 3320,
      "Ġhairy": 3321,
      "ict": 3322,
      "Ġmoder": 3323,
      "iable": 3324,
      "Ġsauce": 3325,
      "Ġcleaning": 3326,
      "ĠGeorge": 3327,
      "Ġunknown": 3328,
      "Ġleaving": 3329,
      "Ġdust": 3330,
      "Ġgasped": 3331,
      "Ġfinding": 3332,
      "Ġjoined": 3333,
      "Ġguard": 3334,
      "Ġsalad": 3335,
      "Ġpotato": 3336,
      "het": 3337,
      "Ġbean": 3338,
      "Ġpumpkin": 3339,
      "iew": 3340,
      "ĠToby": 3341,
      "Ġpicking": 3342,
      "Ġclum": 3343,
      "inary": 3344,
      "Ġdove": 3345,
      "anger": 3346,
      "Ġbump": 3347,
      "Ġhalf": 3348,
      "Ġsink": 3349,
      "amond": 3350,
      "Ġcostum": 3351,
      "uring": 3352,
      "Ġyet": 3353,
      "robe": 3354,
      "Ġmetal": 3355,
      "Ġtank": 3356,
      "Ġbounce": 3357,
      "Ġreliable": 3358,
      "Ġpost": 3359,
      "Ġtor": 3360,
      "Ġview": 3361,
      "Ġdoesn": 3362,
      "Ġthose": 3363,
      "Ġforth": 3364,
      "aghet": 3365,
      "aghetti": 3366,
      "Ġdiamond": 3367,
      "Ġdolphin": 3368,
      "Ġadvice": 3369,
      "ĠOnce": 3370,
      "com": 3371,
      "Ġhay": 3372,
      "Ġbarber": 3373,
      "pid": 3374,
      "Ġmodern": 3375,
      "Ġstamp": 3376,
      "Ġrubb": 3377,
      "Ġthinking": 3378,
      "Ġgem": 3379,
      "Ġing": 3380,
      "Ġholds": 3381,
      "gu": 3382,
      "ebra": 3383,
      "Ġpirate": 3384,
      "ugged": 3385,
      "Ġmarble": 3386,
      "Ġcreate": 3387,
      "How": 3388,
      "Ġregular": 3389,
      "redient": 3390,
      "Ġingredient": 3391,
      "Ġclumsy": 3392,
      "Ġsleeping": 3393,
      "ĠKim": 3394,
      "Ġsearching": 3395,
      "Ġstairs": 3396,
      "Ġwealthy": 3397,
      "Ġyarn": 3398,
      "See": 3399,
      "Ġrushed": 3400,
      "Ġstupid": 3401,
      "Ġprep": 3402,
      "ilty": 3403,
      "Ġtelling": 3404,
      "Ġspaghetti": 3405,
      "Ġguilty": 3406,
      "Ġcheap": 3407,
      "ĠPe": 3408,
      "Ġpeanut": 3409,
      "Ġgoose": 3410,
      "Ġchar": 3411,
      "ÅĵWhat": 3412,
      "cu": 3413,
      "Ġrub": 3414,
      "Ġmagn": 3415,
      "ations": 3416,
      "Ġflex": 3417,
      "Ġcompass": 3418,
      "Ġopens": 3419,
      "Ġmask": 3420,
      "Ġpatch": 3421,
      "Ġstat": 3422,
      "Ġarrow": 3423,
      "Ġzebra": 3424,
      "Ġengine": 3425,
      "io": 3426,
      "Ġthunder": 3427,
      "Ġknock": 3428,
      "Ġsquare": 3429,
      "illa": 3430,
      "eezed": 3431,
      "irsty": 3432,
      "Ġangel": 3433,
      "Ġcur": 3434,
      "ĠBear": 3435,
      "Ġgraceful": 3436,
      "Ġcamera": 3437,
      "Ġumbrella": 3438,
      "cod": 3439,
      "Ġdriving": 3440,
      "Ġbull": 3441,
      "Ġcrazy": 3442,
      "âĤ¬âĢ": 3443,
      "ĠBa": 3444,
      "Ġshiver": 3445,
      "Ġwashed": 3446,
      "Ġcarrying": 3447,
      "Ġstage": 3448,
      "isk": 3449,
      "Ġpopular": 3450,
      "Ġbeet": 3451,
      "Ġdull": 3452,
      "umbers": 3453,
      "ĠPolly": 3454,
      "ÅĵIt": 3455,
      "Ġmissing": 3456,
      "Ġsparkled": 3457,
      "Ġfriendship": 3458,
      "Ġtruth": 3459,
      "shion": 3460,
      "Ġmeal": 3461,
      "ĠSophie": 3462,
      "Go": 3463,
      "Ġseeds": 3464,
      "fa": 3465,
      "Ġflexible": 3466,
      "Ġimpressive": 3467,
      "Ġsne": 3468,
      "Ġtied": 3469,
      "Ġpebble": 3470,
      "time": 3471,
      "Ġcareless": 3472,
      "Ġlibrary": 3473,
      "Ġimagined": 3474,
      "Ġcomb": 3475,
      "Ġfresh": 3476,
      "Ġdeliver": 3477,
      "Ġnature": 3478,
      "Ġshel": 3479,
      "Ġending": 3480,
      "Ġpatter": 3481,
      "Ġdestro": 3482,
      "Ġjacket": 3483,
      "Ġpersist": 3484,
      "Ġreward": 3485,
      "Ġhandle": 3486,
      "ision": 3487,
      "Ġrubbed": 3488,
      "ĠRo": 3489,
      "Ġingredients": 3490,
      "Ġdreaming": 3491,
      "Ġshocked": 3492,
      "ĠAlex": 3493,
      "ric": 3494,
      "Ġprize": 3495,
      "oomy": 3496,
      "Ġsudden": 3497,
      "Ġcrocod": 3498,
      "Ġload": 3499,
      "Ġenth": 3500,
      "ief": 3501,
      "ibb": 3502,
      "Ġpige": 3503,
      "Ġpattern": 3504,
      "Ġcompassion": 3505,
      "Ġenvel": 3506,
      "ĠNext": 3507,
      "Ġflashlight": 3508,
      "Ġthirsty": 3509,
      "Ġsadly": 3510,
      "Ġencou": 3511,
      "Re": 3512,
      "Ġstranger": 3513,
      "arsh": 3514,
      "ince": 3515,
      "Ġenthus": 3516,
      "Ġwheels": 3517,
      "Ġdesk": 3518,
      "ÅĵLetÃ¢": 3519,
      "ement": 3520,
      "ĠJoey": 3521,
      "Ġreading": 3522,
      "Ġwire": 3523,
      "Ġdiscover": 3524,
      "Ġearly": 3525,
      "Ġmailbox": 3526,
      "Ġfork": 3527,
      "Ġsuit": 3528,
      "Ġnumbers": 3529,
      "Ġtem": 3530,
      "Ġpeeked": 3531,
      "ĠAndy": 3532,
      "Ġpenny": 3533,
      "Ġbutterflies": 3534,
      "awn": 3535,
      "Ġcryst": 3536,
      "Ġspilled": 3537,
      "Ġbracelet": 3538,
      "Ġtorn": 3539,
      "Ġrug": 3540,
      "Ġgum": 3541,
      "Ġstops": 3542,
      "loo": 3543,
      "Ġrece": 3544,
      "Ġenv": 3545,
      "Ġcomput": 3546,
      "Ġahead": 3547,
      "Ġspring": 3548,
      "bled": 3549,
      "Ġorder": 3550,
      "Ġtowers": 3551,
      "comfort": 3552,
      "Ġsorts": 3553,
      "Ġobject": 3554,
      "ellig": 3555,
      "Ġwing": 3556,
      "Ġbent": 3557,
      "Ġcere": 3558,
      "Ġanx": 3559,
      "Ġsurf": 3560,
      "Ġpengu": 3561,
      "Ġearth": 3562,
      "Ġintellig": 3563,
      "Ġwarned": 3564,
      "Ġwindows": 3565,
      "Ġspoke": 3566,
      "Ġpow": 3567,
      "Ġpup": 3568,
      "gest": 3569,
      "Ġhumble": 3570,
      "Ġuncomfort": 3571,
      "Ġavo": 3572,
      "Ġpant": 3573,
      "Ġnote": 3574,
      "Ġuncomfortable": 3575,
      "Ġplaced": 3576,
      "Yay": 3577,
      "iches": 3578,
      "Ġsunflower": 3579,
      "Ġpale": 3580,
      "Ġtravel": 3581,
      "Ġsuper": 3582,
      "Ġbadly": 3583,
      "Ġolder": 3584,
      "Ġslides": 3585,
      "Ġanxious": 3586,
      "ikes": 3587,
      "Ġbiggest": 3588,
      "Ġscale": 3589,
      "Ġcompl": 3590,
      "ĠcouldnÃ¢": 3591,
      "Ġstack": 3592,
      "Ġflute": 3593,
      "Ġtrap": 3594,
      "Ġstatue": 3595,
      "Ġscoot": 3596,
      "Ow": 3597,
      "Ġcounting": 3598,
      "Ġgrowing": 3599,
      "Ġcooking": 3600,
      "Ġcomplet": 3601,
      "Ġliz": 3602,
      "Ġtunnel": 3603,
      "Ġbeetle": 3604,
      "Ġcelebrate": 3605,
      "host": 3606,
      "Ġmel": 3607,
      "They": 3608,
      "Ġcupboard": 3609,
      "Ġmush": 3610,
      "Ġsofa": 3611,
      "Ġnail": 3612,
      "Ġharmless": 3613,
      "Ġscatter": 3614,
      "ĠPaul": 3615,
      "Ġbeauty": 3616,
      "Ġmole": 3617,
      "Ġdeaf": 3618,
      "Ġvalue": 3619,
      "Ġnurse": 3620,
      "Ġperm": 3621,
      "ĠHere": 3622,
      "Ġer": 3623,
      "Ġshut": 3624,
      "Ġpersistent": 3625,
      "Ġjumps": 3626,
      "Ġcrocodile": 3627,
      "Ġhung": 3628,
      "Ġghost": 3629,
      "Ġgifted": 3630,
      "ĠCharl": 3631,
      "Ġrefused": 3632,
      "Ġcharming": 3633,
      "Ġtrick": 3634,
      "ĠGive": 3635,
      "Ġneat": 3636,
      "Ġnames": 3637,
      "ĠPat": 3638,
      "Ġcourage": 3639,
      "opus": 3640,
      "Ġyawn": 3641,
      "Ġflour": 3642,
      "ctopus": 3643,
      "Ġcrane": 3644,
      "Ġcurt": 3645,
      "Ġpretending": 3646,
      "cream": 3647,
      "Ġpony": 3648,
      "Ġcereal": 3649,
      "Ġbase": 3650,
      "Ġsandwiches": 3651,
      "ices": 3652,
      "Ġraven": 3653,
      "Ġsnuggled": 3654,
      "Ġcurtain": 3655,
      "Ġdestroy": 3656,
      "Ġsupport": 3657,
      "Ġtur": 3658,
      "Ġordinary": 3659,
      "Ġchasing": 3660,
      "Ġuniver": 3661,
      "ĠLook": 3662,
      "aid": 3663,
      "Ġquestion": 3664,
      "Ġenvelope": 3665,
      "aches": 3666,
      "Ġdrawer": 3667,
      "Ġtriang": 3668,
      "Ġvi": 3669,
      "Ġcamp": 3670,
      "ĠUn": 3671,
      "Ġsett": 3672,
      "ud": 3673,
      "Ġcomputer": 3674,
      "Ġoctopus": 3675,
      "Ġattract": 3676,
      "Ġrules": 3677,
      "Ġcrawl": 3678,
      "Ġlively": 3679,
      "Ġsend": 3680,
      "Ġgloomy": 3681,
      "Ġcartoon": 3682,
      "Ġuncle": 3683,
      "ips": 3684,
      "Ġintelligent": 3685,
      "He": 3686,
      "Ġmay": 3687,
      "Ġpiano": 3688,
      "Tommy": 3689,
      "Ġspeed": 3690,
      "Ġpackage": 3691,
      "Ġblueber": 3692,
      "Ġshaking": 3693,
      "Ġfu": 3694,
      "Ġhelmet": 3695,
      "Ġcrystal": 3696,
      "Ġneedle": 3697,
      "Ġmushroom": 3698,
      "Ġturkey": 3699,
      "oe": 3700,
      "Ġcollar": 3701,
      "Ġparade": 3702,
      "Ġcreatures": 3703,
      "stri": 3704,
      "heart": 3705,
      "ÅĵThat": 3706,
      "Ġhurry": 3707,
      "Ġtwirled": 3708,
      "Ġphot": 3709,
      "Ġlizard": 3710,
      "enry": 3711,
      "erable": 3712,
      "aff": 3713,
      "orant": 3714,
      "ubby": 3715,
      "Ġalert": 3716,
      "und": 3717,
      "Ġmiserable": 3718,
      "Max": 3719,
      "Ġthief": 3720,
      "gust": 3721,
      "Ġstation": 3722,
      "Ġsoldier": 3723,
      "Ġhunter": 3724,
      "Ġpepper": 3725,
      "ceed": 3726,
      "Ġtask": 3727,
      "illie": 3728,
      "Ġanywhere": 3729,
      "Ġdug": 3730,
      "Ġdisgust": 3731,
      "Ġbicy": 3732,
      "Ġfireman": 3733,
      "Ġener": 3734,
      "cut": 3735,
      "Ġcarp": 3736,
      "ĠGrace": 3737,
      "iest": 3738,
      "ĠBefore": 3739,
      "ses": 3740,
      "Ġwishes": 3741,
      "Ġseal": 3742,
      "Ġresist": 3743,
      "Ġled": 3744,
      "Ġvide": 3745,
      "Ġbeep": 3746,
      "Ġignorant": 3747,
      "Ġbandage": 3748,
      "Ġstickers": 3749,
      "coa": 3750,
      "ĠBrownie": 3751,
      "Ġscreen": 3752,
      "Ġradio": 3753,
      "Ġhelpless": 3754,
      "Ġbounced": 3755,
      "tter": 3756,
      "Ġtrash": 3757,
      "Give": 3758,
      "Ġsecond": 3759,
      "Ġleash": 3760,
      "Ġrepe": 3761,
      "Ġpracticed": 3762,
      "Ġmuff": 3763,
      "Ġshine": 3764,
      "Ġchance": 3765,
      "Ġletters": 3766,
      "Ġattractive": 3767,
      "Ġimpat": 3768,
      "Ġmill": 3769,
      "Ġstirred": 3770,
      "Ġcricket": 3771,
      "Ġjeep": 3772,
      "Ġstretched": 3773,
      "Ġnobody": 3774,
      "urb": 3775,
      "Ġthread": 3776,
      "Ġpasta": 3777,
      "Ġcube": 3778,
      "Ġpand": 3779,
      "Ġchubby": 3780,
      "Ġtooth": 3781,
      "ummer": 3782,
      "Ġpigeon": 3783,
      "Ġjet": 3784,
      "Ġgir": 3785,
      "ĠAnnie": 3786,
      "Ġcompassionate": 3787,
      "ccol": 3788,
      "ĠSh": 3789,
      "If": 3790,
      "Ġclub": 3791,
      "ccoli": 3792,
      "Ġtrump": 3793,
      "Ġdisturb": 3794,
      "orable": 3795,
      "Ġdecorate": 3796,
      "ĠTweetie": 3797,
      "Ġcocoa": 3798,
      "Ġbrighter": 3799,
      "Ġjug": 3800,
      "Ġimpatient": 3801,
      "Ġsteps": 3802,
      "arian": 3803,
      "Ġtire": 3804,
      "Ġcompetitive": 3805,
      "Ġfurther": 3806,
      "Ġotter": 3807,
      "Ġrespectful": 3808,
      "Ġsucceed": 3809,
      "Timmy": 3810,
      "Ġtroubled": 3811,
      "Ġpressed": 3812,
      "olin": 3813,
      "Ġitself": 3814,
      "aked": 3815,
      "Ġbet": 3816,
      "Ġostri": 3817,
      "noon": 3818,
      "Ġcandle": 3819,
      "Ġmug": 3820,
      "Ġafternoon": 3821,
      "ĠJerry": 3822,
      "Ġattic": 3823,
      "Ġrestless": 3824,
      "Ġstarts": 3825,
      "Ġpun": 3826,
      "Ġtap": 3827,
      "Ġsomewhere": 3828,
      "ĠBet": 3829,
      "ĠAre": 3830,
      "Ġribb": 3831,
      "aurant": 3832,
      "stic": 3833,
      "Ġdess": 3834,
      "Ġquar": 3835,
      "Ġcarpet": 3836,
      "Ġanyway": 3837,
      "Ġshouts": 3838,
      "Ġshoe": 3839,
      "Ġdisgusting": 3840,
      "Ġadorable": 3841,
      "Ġrestaurant": 3842,
      "Ġskip": 3843,
      "Ġleop": 3844,
      "Ġfort": 3845,
      "gn": 3846,
      "Ġpants": 3847,
      "Ġvine": 3848,
      "ĠWhere": 3849,
      "Ġtray": 3850,
      "Ġnuts": 3851,
      "Ġwaff": 3852,
      "Ġcase": 3853,
      "come": 3854,
      "Ġgor": 3855,
      "Ġfearful": 3856,
      "Ġscrew": 3857,
      "Ġenvious": 3858,
      "Ġsweetheart": 3859,
      "opter": 3860,
      "Ġcards": 3861,
      "Ġallig": 3862,
      "ĠTr": 3863,
      "icopter": 3864,
      "iastic": 3865,
      "Ġdistant": 3866,
      "Ġbroccoli": 3867,
      "Ġenthusiastic": 3868,
      "enny": 3869,
      "Ġhipp": 3870,
      "Ġfilthy": 3871,
      "Ġgiggle": 3872,
      "Ġexper": 3873,
      "ĠLee": 3874,
      "Ġtrumpet": 3875,
      "Ġcooked": 3876,
      "Ġhelicopter": 3877,
      "Ġmonkeys": 3878,
      "ĠEverything": 3879,
      "night": 3880,
      "Ġreco": 3881,
      "Ġpor": 3882,
      "ĠWill": 3883,
      "irit": 3884,
      "Ġsandbox": 3885,
      "aroo": 3886,
      "angaroo": 3887,
      "Ġhook": 3888,
      "Ġharsh": 3889,
      "ĠWould": 3890,
      "ĠCharlie": 3891,
      "Ġbri": 3892,
      "ĠLilly": 3893,
      "Ġadmire": 3894,
      "Ġnowhere": 3895,
      "Ġten": 3896,
      "Ġbackpack": 3897,
      "gging": 3898,
      "Ġsoar": 3899,
      "Ġsent": 3900,
      "Ġbelt": 3901,
      "Ġbatht": 3902,
      "gie": 3903,
      "Ġexplain": 3904,
      "Ġscooter": 3905,
      "Ġants": 3906,
      "Ġmeas": 3907,
      "opl": 3908,
      "Ġpoem": 3909,
      "eropl": 3910,
      "Ġcountry": 3911,
      "ĠSnow": 3912,
      "cycle": 3913,
      "Ġbathtub": 3914,
      "Ġpipe": 3915,
      "Ġaeropl": 3916,
      "Ġbarking": 3917,
      "Ġquite": 3918,
      "Ġunpack": 3919,
      "stairs": 3920,
      "par": 3921,
      "Ġcows": 3922,
      "Ġspeak": 3923,
      "Ġkangaroo": 3924,
      "Ġlid": 3925,
      "Ġsquash": 3926,
      "ĠHenry": 3927,
      "Ġleopard": 3928,
      "Ġmama": 3929,
      "Ġhappier": 3930,
      "Ġspell": 3931,
      "Ġrepair": 3932,
      "ĠRed": 3933,
      "Ġlistening": 3934,
      "Ġbicycle": 3935,
      "Ġsepar": 3936,
      "imi": 3937,
      "Ġsummer": 3938,
      "ĠMaria": 3939,
      "ĠSm": 3940,
      "Ġstared": 3941,
      "ĠPap": 3942,
      "Ġgrabs": 3943,
      "Ġmessage": 3944,
      "Ġbreat": 3945,
      "ĠdidnÃ¢": 3946,
      "uct": 3947,
      "Ġostrich": 3948,
      "Ġfirework": 3949,
      "Ġhuman": 3950,
      "Ġloop": 3951,
      "Ġgiven": 3952,
      "Ġcomet": 3953,
      "Ġmule": 3954,
      "hood": 3955,
      "ĠMillie": 3956,
      "Ġsort": 3957,
      "Ġimpro": 3958,
      "Ġgorilla": 3959,
      "Ġmodest": 3960,
      "Ġpaid": 3961,
      "Ġfinds": 3962,
      "year": 3963,
      "Ġyogurt": 3964,
      "ĠBaby": 3965,
      "Ġdessert": 3966,
      "Ġmeat": 3967,
      "Ġobser": 3968,
      "Ġviolin": 3969,
      "Ġur": 3970,
      "Bye": 3971,
      "Ġhedge": 3972,
      "ipping": 3973,
      "Ġspirit": 3974,
      "ĠSandy": 3975,
      "Ġpulls": 3976,
      "Ġtripped": 3977,
      "Ġjellyfish": 3978,
      "Ġmelon": 3979,
      "Ġsplit": 3980,
      "ĠBunny": 3981,
      "Ġpaws": 3982,
      "ĠKate": 3983,
      "Ġalligator": 3984,
      "Ġfle": 3985,
      "Ġrescue": 3986,
      "Ġsize": 3987,
      "Ġholes": 3988,
      "ĠPapa": 3989,
      "Ġprov": 3990,
      "ucked": 3991,
      "ĠJess": 3992,
      "Ġroared": 3993,
      "Ġfive": 3994,
      "Ġforgave": 3995,
      "Ġcats": 3996,
      "Ġwheat": 3997,
      "Ġpurse": 3998,
      "Ġrecogn": 3999,
      "Ġhippo": 4000,
      "Ġpilot": 4001,
      "Ġhall": 4002,
      "Ġtax": 4003,
      "Ġsheet": 4004,
      "Ġpal": 4005,
      "Ġcact": 4006,
      "Ġinse": 4007,
      "Ġpushing": 4008,
      "ophone": 4009,
      "Ġbikes": 4010,
      "Ġorganize": 4011,
      "ci": 4012,
      "Ġswinging": 4013,
      "Ġsle": 4014,
      "Ġraft": 4015,
      "ĠMimi": 4016,
      "Ġsalt": 4017,
      "Ġscold": 4018,
      "ĠMag": 4019,
      "Ġstarting": 4020,
      "Ġshade": 4021,
      "Ġbehave": 4022,
      "Ġbin": 4023,
      "ĠTed": 4024,
      "Ġlightning": 4025,
      "Ġoat": 4026,
      "Ġrice": 4027,
      "Ġhaircut": 4028,
      "Ġbrus": 4029,
      "Ġtriangle": 4030,
      "eer": 4031,
      "Ġbuzz": 4032,
      "Ġenergy": 4033,
      "ĠBuddy": 4034,
      "iskers": 4035,
      "ÅĵYou": 4036,
      "Ġbur": 4037,
      "Ġknot": 4038,
      "Ġfrowned": 4039,
      "bul": 4040,
      "Ġlear": 4041,
      "aled": 4042,
      "Ġlearnt": 4043,
      "Ġeither": 4044,
      "Ġporch": 4045,
      "Ġmath": 4046,
      "Ġriding": 4047,
      "Ġped": 4048,
      "Ġlip": 4049,
      "lcano": 4050,
      "seum": 4051,
      "Ġtrains": 4052,
      "ebook": 4053,
      "Ġended": 4054,
      "Ġnotebook": 4055,
      "Ġsticker": 4056,
      "iling": 4057,
      "inking": 4058,
      "ĠDanny": 4059,
      "Ġlend": 4060,
      "ĠRos": 4061,
      "Ġwallet": 4062,
      "Ġluck": 4063,
      "Ġevening": 4064,
      "reci": 4065,
      "Ġpanda": 4066,
      "ĠWhiskers": 4067,
      "Ġcactus": 4068,
      "Ġjokes": 4069,
      "Ġchalk": 4070,
      "Ġbananas": 4071,
      "Ġpapers": 4072,
      "Ġrod": 4073,
      "Ġmuseum": 4074,
      "Ġsweater": 4075,
      "Ġappreci": 4076,
      "Ġlions": 4077,
      "Ġpalace": 4078,
      "Ġtaxi": 4079,
      "Ġvolcano": 4080,
      "ube": 4081,
      "Ġshopkeeper": 4082,
      "Ġchain": 4083,
      "Ġstrawberry": 4084,
      "Ġbears": 4085,
      "Ġrolling": 4086,
      "Ġboots": 4087,
      "Ġeras": 4088,
      "Ġhadn": 4089,
      "astic": 4090,
      "Ġneighbour": 4091,
      "Ġbarrel": 4092,
      "Ġshakes": 4093,
      "ffe": 4094,
      "Ġmicr": 4095,
      "icer": 4096,
      "ffee": 4097,
      "ooped": 4098,
      "Ġsilver": 4099,
      "urch": 4100,
      "Ġlaund": 4101,
      "Ġalive": 4102,
      "Ġsmells": 4103,
      "Ġmild": 4104,
      "ĠRu": 4105,
      "play": 4106,
      "Ġreind": 4107,
      "Ġsock": 4108,
      "Ġlaundry": 4109,
      "Ġsteak": 4110,
      "Ġavoc": 4111,
      "Ġink": 4112,
      "Ġpole": 4113,
      "Ġstrugg": 4114,
      "iron": 4115,
      "Ġpushes": 4116,
      "Ġputting": 4117,
      "Ġvisited": 4118,
      "Ġgoal": 4119,
      "Ġsoftly": 4120,
      "Ġmagnet": 4121,
      "Ġjudge": 4122,
      "ĠTony": 4123,
      "edy": 4124,
      "Ġtricks": 4125,
      "Ġdrawings": 4126,
      "Ġmicrophone": 4127,
      "Ġclapping": 4128,
      "Ġpad": 4129,
      "Ġol": 4130,
      "Ġhive": 4131,
      "Ġshield": 4132,
      "Ġtube": 4133,
      "Ġleaned": 4134,
      "Ġcolours": 4135,
      "Ġsailor": 4136,
      "Ġshovel": 4137,
      "Ġairport": 4138,
      "Ġzoomed": 4139,
      "Ġfalling": 4140,
      "Ġrag": 4141,
      "Ġbelongs": 4142,
      "Ġshelter": 4143,
      "ĠBun": 4144,
      "Ġunlock": 4145,
      "Ġsprink": 4146,
      "ĠInst": 4147,
      "Ġchecked": 4148,
      "ĠHarry": 4149,
      "elery": 4150,
      "Ġinsist": 4151,
      "Ġpenguin": 4152,
      "Ġquarrel": 4153,
      "happy": 4154,
      "Ġambul": 4155,
      "Ġclimbing": 4156,
      "Ġmarched": 4157,
      "Ġgro": 4158,
      "Ġdisplay": 4159,
      "Ġreindeer": 4160,
      "cast": 4161,
      "hino": 4162,
      "Ġsaus": 4163,
      "ense": 4164,
      "Ġaeroplane": 4165,
      "Ġdive": 4166,
      "Ġdishes": 4167,
      "ophy": 4168,
      "Ġpolish": 4169,
      "Ġbarks": 4170,
      "ges": 4171,
      "Ġavail": 4172,
      "ĠdonÃ¢": 4173,
      "Ġfields": 4174,
      "Ġgrapes": 4175,
      "Mia": 4176,
      "Ġsandcast": 4177,
      "Ġambulance": 4178,
      "Ġpeek": 4179,
      "ĠOr": 4180,
      "ait": 4181,
      "Ġapologized": 4182,
      "Ġyach": 4183,
      "Ġsoil": 4184,
      "Ġcoffee": 4185,
      "Ġskill": 4186,
      "sely": 4187,
      "Ġcostume": 4188,
      "Ġelev": 4189,
      "Ġoy": 4190,
      "Ġtrophy": 4191,
      "Ġfeelings": 4192,
      "Ġplanet": 4193,
      "Ġhoping": 4194,
      "anic": 4195,
      "Ġfilm": 4196,
      "Ġprun": 4197,
      "Ġart": 4198,
      "Ġrubber": 4199,
      "Dad": 4200,
      "ron": 4201,
      "Ġunhappy": 4202,
      "Ġdrops": 4203,
      "Ġshrimp": 4204,
      "nger": 4205,
      "Ġmedal": 4206,
      "Ġkitty": 4207,
      "âĤ¬âĢľ": 4208,
      "Ġthanks": 4209,
      "Ġraining": 4210,
      "Ġmen": 4211,
      "chanic": 4212,
      "Ġstom": 4213,
      "Ġminute": 4214,
      "Ġelevator": 4215,
      "Ġcelery": 4216,
      "Ġcord": 4217,
      "Ġonion": 4218,
      "Ġrhino": 4219,
      "Ġavailable": 4220,
      "ected": 4221,
      "Ġeraser": 4222,
      "Ġincl": 4223,
      "Ġpage": 4224,
      "Ġshort": 4225,
      "Ġyacht": 4226,
      "reeze": 4227,
      "Ġshouldn": 4228,
      "Ġfisher": 4229,
      "Ġperfectly": 4230,
      "Ġimagine": 4231,
      "Ġwool": 4232,
      "Ġmarry": 4233,
      "Ġwinter": 4234,
      "Ġbasketball": 4235,
      "Ġmechanic": 4236,
      "Ġdiary": 4237,
      "nam": 4238,
      "Ġbul": 4239,
      "Ġherb": 4240,
      "ĠKat": 4241,
      "Ġflies": 4242,
      "Ġcomplete": 4243,
      "Ġrever": 4244,
      "Ġappl": 4245,
      "ĠAb": 4246,
      "Ġclosely": 4247,
      "aused": 4248,
      "Ġcardboard": 4249,
      "Ġinsect": 4250,
      "Ġmagaz": 4251,
      "Ha": 4252,
      "Ġeagerly": 4253,
      "Ġplayer": 4254,
      "eath": 4255,
      "Ġjournal": 4256,
      "ĠSmith": 4257,
      "Jim": 4258,
      "Ġbaking": 4259,
      "Ġvend": 4260,
      "Ġquit": 4261,
      "Ġfurn": 4262,
      "Ġglove": 4263,
      "iture": 4264,
      "Ġdisag": 4265,
      "ĠJames": 4266,
      "Ġfurniture": 4267,
      "Ġstuffed": 4268,
      "Ġtub": 4269,
      "Ġbreaks": 4270,
      "Ġimagination": 4271,
      "Ġbulb": 4272,
      "Ġtreasures": 4273,
      "Ġchurch": 4274,
      "gen": 4275,
      "ecause": 4276,
      "Ġcounter": 4277,
      "Ġwife": 4278,
      "Ġheaded": 4279,
      "any": 4280,
      "Ġcooler": 4281,
      "azz": 4282,
      "Ġpair": 4283,
      "Ġfreez": 4284,
      "Ġfrogs": 4285,
      "ĠMiss": 4286,
      "Ġtut": 4287,
      "quit": 4288,
      "ĠJul": 4289,
      "Ġskull": 4290,
      "mand": 4291,
      "ories": 4292,
      "Ġpit": 4293,
      "Ġknob": 4294,
      "ween": 4295,
      "Ġfactor": 4296,
      "Ġswitch": 4297,
      "Ġfootball": 4298,
      "place": 4299,
      "Ġoffer": 4300,
      "ides": 4301,
      "Ġsunset": 4302,
      "Ġbetween": 4303,
      "Ġlie": 4304,
      "ĠInstead": 4305,
      "ifl": 4306,
      "ĠClara": 4307,
      "aulifl": 4308,
      "Ġcheek": 4309,
      "Ġsym": 4310,
      "Ġswung": 4311,
      "Ġfactory": 4312,
      "Ġcups": 4313,
      "Ġmotorcycle": 4314,
      "pe": 4315,
      "right": 4316,
      "Ġchirp": 4317,
      "Ġmos": 4318,
      "quito": 4319,
      "Ġflame": 4320,
      "Ġtwink": 4321,
      "..": 4322,
      "Ġshouting": 4323,
      "nament": 4324,
      "Ġpainter": 4325,
      "Ġgolf": 4326,
      "Ġpeach": 4327,
      "Ġornament": 4328,
      "kelet": 4329,
      "Ġblowing": 4330,
      "Ġhut": 4331,
      "Ġsung": 4332,
      "affe": 4333,
      "Ġhotel": 4334,
      "Jack": 4335,
      "Ġseeing": 4336,
      "Ġcaulifl": 4337,
      "Ġfolder": 4338,
      "Ġvendor": 4339,
      "ccer": 4340,
      "lass": 4341,
      "Ġvideo": 4342,
      "Ġmixer": 4343,
      "Mama": 4344,
      "izes": 4345,
      "bol": 4346,
      "Ġthrows": 4347,
      "Ġpirates": 4348,
      "Ġcreated": 4349,
      "orses": 4350,
      "Ġheads": 4351,
      "Ġoil": 4352,
      "Ġkay": 4353,
      "Ġframe": 4354,
      "Ġmosquito": 4355,
      "ĠMaggie": 4356,
      "angu": 4357,
      "Mum": 4358,
      "mm": 4359,
      "ĠMay": 4360,
      "Ġcushion": 4361,
      "Ġsoccer": 4362,
      "Ġfisherman": 4363,
      "Ġcoal": 4364,
      "zzy": 4365,
      "Ġsymbol": 4366,
      "Ġhorses": 4367,
      "Ġcable": 4368,
      "ceros": 4369,
      "Ġpopped": 4370,
      "Ġlangu": 4371,
      "ab": 4372,
      "Ġwipe": 4373,
      "Ġpine": 4374,
      "Ġattention": 4375,
      "Ġskelet": 4376,
      "Ġbattery": 4377,
      "Molly": 4378,
      "Ġpowder": 4379,
      "Ġcauliflower": 4380,
      "Ġstud": 4381,
      "Ġlaser": 4382,
      "ĠGod": 4383,
      "render": 4384,
      "Ġforgotten": 4385,
      "Ġweather": 4386,
      "rod": 4387,
      "Ġlives": 4388,
      "Ġmop": 4389,
      "Ġcelebrated": 4390,
      "Ġfishing": 4391,
      "Ġax": 4392,
      "ef": 4393,
      "Ġrot": 4394,
      "Ġsince": 4395,
      "Ġtrail": 4396,
      "ĠIÃ¢": 4397,
      "elcome": 4398,
      "Ġmaze": 4399,
      "aws": 4400,
      "Ġphoto": 4401,
      "ites": 4402,
      "Ġyoga": 4403,
      "Ġsurround": 4404,
      "Ġwaving": 4405,
      "Ġslept": 4406,
      "Ġsneak": 4407,
      "Ġanch": 4408,
      "Ġdear": 4409,
      "unately": 4410,
      "Ġgiraffe": 4411,
      "Ġintrod": 4412,
      "Ġrhinoceros": 4413,
      "Ġpoke": 4414,
      "Ġswamp": 4415,
      "ple": 4416,
      "Ġflea": 4417,
      "Ġpoints": 4418,
      "Ġitch": 4419,
      "Ġpoint": 4420,
      "Ġglowing": 4421,
      "ĠitÃ¢": 4422,
      "Ġfireplace": 4423,
      "Ġbreeze": 4424,
      "ney": 4425,
      "lasses": 4426,
      "Ġsub": 4427,
      "Ġvet": 4428,
      "Ġsunglasses": 4429,
      "Your": 4430,
      "Ġkingdom": 4431,
      "Ġmemories": 4432,
      "Ġtutor": 4433,
      "Ġstreng": 4434,
      "Ġtuna": 4435,
      "Ġiron": 4436,
      "Ġreve": 4437,
      "ĠRosie": 4438,
      "Ġvest": 4439,
      "spap": 4440,
      "Ġpetals": 4441,
      "Ġfog": 4442,
      "Ġmistakes": 4443,
      "Ġaxe": 4444,
      "ĠSte": 4445,
      "Ġcomplain": 4446,
      "Ġbaseball": 4447,
      "Ġdancer": 4448,
      "Ġchickens": 4449,
      "Ġparent": 4450,
      "Ġig": 4451,
      "hero": 4452,
      "Ġnewspap": 4453,
      "Ġstrength": 4454,
      "Ġgreedy": 4455,
      "Ġceiling": 4456,
      "ckey": 4457,
      "Ġsquirrels": 4458,
      "Ġhockey": 4459,
      "Ġigloo": 4460,
      "Ġsir": 4461,
      "ĠTrue": 4462,
      "Ġgrin": 4463,
      "chie": 4464,
      "Ġanchor": 4465,
      "Ġskeleton": 4466,
      "rosc": 4467,
      "Ġsniffed": 4468,
      "Ġgrocer": 4469,
      "Ġsuperhero": 4470,
      "Ġargue": 4471,
      "Ġnapkin": 4472,
      "Ġgolden": 4473,
      "ues": 4474,
      "Ġhanging": 4475,
      "Ġtrave": 4476,
      "Ġmusician": 4477,
      "medi": 4478,
      "Ġskirt": 4479,
      "roscope": 4480,
      "Ġstaff": 4481,
      "Ġtemple": 4482,
      "Ġunif": 4483,
      "Ġagree": 4484,
      "Ġsque": 4485,
      "Ġbury": 4486,
      "mediately": 4487,
      "Ġtheater": 4488,
      "Ġdiscu": 4489,
      "Ġuniform": 4490,
      "Ġeaten": 4491,
      "Ġslipper": 4492,
      "Ġwelcomed": 4493,
      "Ġseas": 4494,
      "Ġshoulder": 4495,
      "Ġzipper": 4496,
      "Ġquietly": 4497,
      "Ġmeeting": 4498,
      "ssible": 4499,
      "Ġlime": 4500,
      "Ġinvest": 4501,
      "istol": 4502,
      "Ġmicroscope": 4503,
      "sing": 4504,
      "Ġpinch": 4505,
      "chair": 4506,
      "Ġflapped": 4507,
      "Ġslippery": 4508,
      "Ġaccepted": 4509,
      "Ġfought": 4510,
      "Ġinvestig": 4511,
      "erc": 4512,
      "Ġpistol": 4513,
      "Ġdoors": 4514,
      "Ġminer": 4515,
      "reek": 4516,
      "Ġradish": 4517,
      "Ġplastic": 4518,
      "Ġthrowing": 4519,
      "Ġcalls": 4520,
      "Ġbouncing": 4521,
      "tress": 4522,
      "Ġmattress": 4523,
      "men": 4524,
      "Ġsurrender": 4525,
      "Ġcob": 4526,
      "aces": 4527,
      "house": 4528,
      "Ġpear": 4529,
      "Ġcreek": 4530,
      "Ġvroom": 4531,
      "Ġkayak": 4532,
      "tain": 4533,
      "Ġmoves": 4534,
      "Ġsticky": 4535,
      "Qu": 4536,
      "Ġlawy": 4537,
      "Ġnovel": 4538,
      "Wait": 4539,
      "llie": 4540,
      "alley": 4541,
      "Ġcub": 4542,
      "Ġavocado": 4543,
      "Ġcared": 4544,
      "Ġsuff": 4545,
      "Ġfreezer": 4546,
      "Ġlotion": 4547,
      "aud": 4548,
      "case": 4549,
      "ison": 4550,
      "ler": 4551,
      "te": 4552,
      "ĠFirst": 4553,
      "was": 4554,
      "Ġfauc": 4555,
      "And": 4556,
      "ĠTina": 4557,
      "Ġarmchair": 4558,
      "Ġwriting": 4559,
      "inked": 4560,
      "Ġreef": 4561,
      "Ġmakeup": 4562,
      "Ġmystery": 4563,
      "Ġvalley": 4564,
      "web": 4565,
      "Ġtug": 4566,
      "Ġinvestigate": 4567,
      "Ġnews": 4568,
      "Ġsailing": 4569,
      "Ġcherries": 4570,
      "Ġregret": 4571,
      "Ġcrib": 4572,
      "washer": 4573,
      "imney": 4574,
      "Ġexerc": 4575,
      "Ġoyster": 4576,
      "Ġfaucet": 4577,
      "Ġagre": 4578,
      "Ġsplashing": 4579,
      "Ġticket": 4580,
      "Ġcollected": 4581,
      "Ġworth": 4582,
      "Ġchimney": 4583,
      "Ġtoil": 4584,
      "Ġpresents": 4585,
      "Ġdishwasher": 4586,
      "Ġmagazine": 4587,
      "Ġhappens": 4588,
      "Ġsprayed": 4589,
      "Ġwags": 4590,
      "ÅĵItÃ¢": 4591,
      "Ġprevent": 4592,
      "Ġcobweb": 4593,
      "Ġquack": 4594,
      "Ġveil": 4595,
      "Ġcastles": 4596,
      "Ġentered": 4597,
      "Ġtear": 4598,
      "Ġshrugged": 4599,
      "Ġhar": 4600,
      "Ġpassport": 4601,
      "Ġapplaud": 4602,
      "Ġchess": 4603,
      "Ġseparate": 4604,
      "Ġscolded": 4605,
      "Thanks": 4606,
      "Ġweigh": 4607,
      "Ġtoilet": 4608,
      "Ġalarm": 4609,
      "ives": 4610,
      "ĠSee": 4611,
      "Ġblankets": 4612,
      "Ġrake": 4613,
      "Ġignored": 4614,
      "Ġtucked": 4615,
      "Ġlawyer": 4616,
      "Ġchoice": 4617,
      "ived": 4618,
      "Ġhopes": 4619,
      "Ġattach": 4620,
      "Ġcoats": 4621,
      "sit": 4622,
      "Ġcandles": 4623,
      "Ġfollows": 4624,
      "Ġkisses": 4625,
      "Ġappro": 4626,
      "Ġclassroom": 4627,
      "ring": 4628,
      "Ġpuddles": 4629,
      "Ġeasily": 4630,
      "Ġapart": 4631,
      "ety": 4632,
      "Ġdisappear": 4633,
      "ĠFreddy": 4634,
      "Ġbeef": 4635,
      "Ġchairs": 4636,
      "Ġburned": 4637,
      "Ġbother": 4638,
      "ĠSad": 4639,
      "Ġletting": 4640,
      "Ġstraight": 4641,
      "eterin": 4642,
      "eterinarian": 4643,
      "Ġyield": 4644,
      "Ġward": 4645,
      "Ġdressed": 4646,
      "Ġcane": 4647,
      "Ġtrusted": 4648,
      "ĠMe": 4649,
      "Ġlanguage": 4650,
      "Ġsizes": 4651,
      "Ġveterinarian": 4652,
      "Ġraz": 4653,
      "Ġteleph": 4654,
      "raged": 4655,
      "Ġcaring": 4656,
      "Ġplanes": 4657,
      "Ġwardrobe": 4658,
      "Ġjewelry": 4659,
      "atched": 4660,
      "Ġblinked": 4661,
      "iday": 4662,
      "Ġshower": 4663,
      "Ġrise": 4664,
      "Ġmissile": 4665,
      "Ġkeeping": 4666,
      "Ġlawn": 4667,
      "Ġrequ": 4668,
      "Ġstable": 4669,
      "Ġcabinet": 4670,
      "Ġcrossed": 4671,
      "Ġoak": 4672,
      "Ġble": 4673,
      "ĠHowever": 4674,
      "Ġbookshe": 4675,
      "vision": 4676,
      "Ġstro": 4677,
      "Ġtelephone": 4678,
      "Ġnewspaper": 4679,
      "mend": 4680,
      "Ġclaws": 4681,
      "Ġrooms": 4682,
      "Ġwhisper": 4683,
      "Ġsigh": 4684,
      "Ġpuzzles": 4685,
      "Ġaut": 4686,
      "Ġtrade": 4687,
      "Ġincre": 4688,
      "ival": 4689,
      "Ġcell": 4690,
      "Ġtornado": 4691,
      "Ġscratch": 4692,
      "una": 4693,
      "anges": 4694,
      "Ġbookcase": 4695,
      "Ġinf": 4696,
      "ampoo": 4697,
      "ĠMilly": 4698,
      "Ġblueberries": 4699,
      "Ġsnap": 4700,
      "Ġamazement": 4701,
      "Ġperfu": 4702,
      "ction": 4703,
      "ommend": 4704,
      "Ġsqueezed": 4705,
      "Ġbookshelf": 4706,
      "Ġrecommend": 4707,
      "Ġopera": 4708,
      "Ġsubway": 4709,
      "Ġpra": 4710,
      "ĠRuby": 4711,
      "Ġgym": 4712,
      "Ġdelay": 4713,
      "Ġgrill": 4714,
      "ĠHelp": 4715,
      "Ġrazor": 4716,
      "Ġblouse": 4717,
      "Ġrequest": 4718,
      "Ġcrawling": 4719,
      "Ġpur": 4720,
      "Ġpoked": 4721,
      "âĤ¬.": 4722,
      "Ġtelevision": 4723,
      "Ġbill": 4724,
      "Ġhol": 4725,
      "ggy": 4726,
      "Ġfollowing": 4727,
      "omes": 4728,
      "iction": 4729,
      "Ġshampoo": 4730,
      "Ġfile": 4731,
      "Ġlicks": 4732,
      "Ġspear": 4733,
      "Ġsqueeze": 4734,
      "Ġholiday": 4735,
      "Because": 4736,
      "Ġexperience": 4737,
      "Ġlumber": 4738,
      "Ġimprove": 4739,
      "ĠIs": 4740,
      "Ġmint": 4741,
      "Ġperfume": 4742,
      "Ġserve": 4743,
      "Ġdemand": 4744,
      "Ġsteam": 4745,
      "Ġcliff": 4746,
      "Ġringing": 4747,
      "Ġcrow": 4748,
      "fortunately": 4749,
      "ictionary": 4750,
      "ah": 4751,
      "bbie": 4752,
      "Ġribbon": 4753,
      "Ġimmediately": 4754,
      "Ġhelper": 4755,
      "ĠFo": 4756,
      "Ġmuffin": 4757,
      "Ġfest": 4758,
      "Ġgrowled": 4759,
      "Ġisn": 4760,
      "Ġbegged": 4761,
      "Ġdictionary": 4762,
      "Ġmatches": 4763,
      "Ġshrink": 4764,
      "Ġwaste": 4765,
      "Ġblood": 4766,
      "Ġbirdc": 4767,
      "Ġprop": 4768,
      "Ġideas": 4769,
      "Ġwarmth": 4770,
      "ĠSnowy": 4771,
      "ib": 4772,
      "Ġmustache": 4773,
      "Ġsneeze": 4774,
      "ores": 4775,
      "Ġinvite": 4776,
      "hic": 4777,
      "ĠPeople": 4778,
      "Ġgear": 4779,
      "Ġbirdcage": 4780,
      "Ġvehic": 4781,
      "Ġfuel": 4782,
      "ups": 4783,
      "Ġalright": 4784,
      "alend": 4785,
      "ĠLuck": 4786,
      "Ġrabbits": 4787,
      "asis": 4788,
      "Ġcalend": 4789,
      "Ġweep": 4790,
      "Ġyucky": 4791,
      "Ġflutter": 4792,
      "Ġinstr": 4793,
      "ĠLuckily": 4794,
      "Ġfallen": 4795,
      "Ġmarried": 4796,
      "Ġberry": 4797,
      "lier": 4798,
      "Ġrail": 4799,
      "Ġrow": 4800,
      "ĠEach": 4801,
      "Ġpastry": 4802,
      "Ġrefre": 4803,
      "ucture": 4804,
      "Did": 4805,
      "Ġworms": 4806,
      "Ġstructure": 4807,
      "Ġlaught": 4808,
      "Ġsurprises": 4809,
      "Ġbravely": 4810,
      "Ġbelow": 4811,
      "Ġcalendar": 4812,
      "Ġoasis": 4813,
      "Ġwandered": 4814,
      "Ġwigg": 4815,
      "Ġkneel": 4816,
      "ising": 4817,
      "Ġdire": 4818,
      "Ġunderstanding": 4819,
      "Ġhurting": 4820,
      "Ġlaughter": 4821,
      "omeday": 4822,
      "Ġdrain": 4823,
      "Ġpages": 4824,
      "Ġfloat": 4825,
      "Ġhearts": 4826,
      "Ok": 4827,
      "Ġenter": 4828,
      "ĠKatie": 4829,
      "Ġairpl": 4830,
      "inky": 4831,
      "Ġitem": 4832,
      "omob": 4833,
      "ĠKing": 4834,
      "Ġharb": 4835,
      "Ġreaches": 4836,
      "ĠLiz": 4837,
      "Ġapron": 4838,
      "Is": 4839,
      "Ġsafety": 4840,
      "ĠOllie": 4841,
      "Ġcrash": 4842,
      "Ġautomob": 4843,
      "Ġbathe": 4844,
      "Ġburied": 4845,
      "Ġjunk": 4846,
      "ÅĵNo": 4847,
      "Ġbuckle": 4848,
      "Ġadmir": 4849,
      "Ġroot": 4850,
      "Ġcaptain": 4851,
      "Ġstrawberries": 4852,
      "Ġmyself": 4853,
      "achel": 4854,
      "Ġrelaxed": 4855,
      "Ġsandcastle": 4856,
      "oral": 4857,
      "Ġignore": 4858,
      "Ġskills": 4859,
      "Ġplates": 4860,
      "Welcome": 4861,
      "'ve": 4862,
      "Ġwhip": 4863,
      "ĠWho": 4864,
      "Ġspade": 4865,
      "Ġmoments": 4866,
      "Ġreverse": 4867,
      "htray": 4868,
      "icing": 4869,
      "Ġquiz": 4870,
      "Ġashtray": 4871,
      "ĠJoy": 4872,
      "Ġfestival": 4873,
      "Ġbeamed": 4874,
      "'.": 4875,
      "Ġsnapped": 4876,
      "riger": 4877,
      "ĠRachel": 4878,
      "Ġsomeday": 4879,
      "cakes": 4880,
      "Ġrefriger": 4881,
      "Ġraise": 4882,
      "Ġreceived": 4883,
      "Yuck": 4884,
      "ĠCo": 4885,
      "Ġrefrigerator": 4886,
      "ĠEveryday": 4887,
      "ari": 4888,
      "Ġearlier": 4889,
      "Ġtong": 4890,
      "Ġlic": 4891,
      "Ġweap": 4892,
      "Ġvac": 4893,
      "Ġteaching": 4894,
      "Ġmass": 4895,
      "Ġharbor": 4896,
      "ĠBetsy": 4897,
      "Ġmodel": 4898,
      "ĠIts": 4899,
      "Ġsparkling": 4900,
      "Ġspots": 4901,
      "aped": 4902,
      "Ġinsisted": 4903,
      "Ġsaving": 4904,
      "Ġvanished": 4905,
      "Ġsocks": 4906,
      "Ġbumped": 4907,
      "ĠBuzz": 4908,
      "Ġthumb": 4909,
      "anna": 4910,
      "Ġdried": 4911,
      "Ġsupply": 4912,
      "ission": 4913,
      "ĠSteve": 4914,
      "Ġblackboard": 4915,
      "igail": 4916,
      "Ġprepare": 4917,
      "Ġjail": 4918,
      "Ġjewels": 4919,
      "Ġspending": 4920,
      "xy": 4921,
      "Ġbalan": 4922,
      "Ġscattered": 4923,
      "Ġtoes": 4924,
      "Ġscooped": 4925,
      "Ġsettled": 4926,
      "Ġpermission": 4927,
      "Ġsparkle": 4928,
      "ĠĠĠ": 4929,
      "Ġknown": 4930,
      "ctly": 4931,
      "Ġbreathe": 4932,
      "Ġboot": 4933,
      "Ġyawned": 4934,
      "ĠPenny": 4935,
      "Ġres": 4936,
      "amber": 4937,
      "Ġachie": 4938,
      "Ġdestroyed": 4939,
      "ĠV": 4940,
      "Ġbathrobe": 4941,
      "ĠAbigail": 4942,
      "Ġtease": 4943,
      "Ġremain": 4944,
      "Ġhardly": 4945,
      "Ġencouraged": 4946,
      "Ġreplace": 4947,
      "Ġwaffle": 4948,
      "antly": 4949,
      "Ġpride": 4950,
      "Ġlemonade": 4951,
      "Ġdare": 4952,
      "Ġhanger": 4953,
      "ĠHave": 4954,
      "Ġsits": 4955,
      "Ġpulling": 4956,
      "Ġdecorations": 4957,
      "sters": 4958,
      "ops": 4959,
      "Ġremove": 4960,
      "Ġcuddled": 4961,
      "Ġhate": 4962,
      "Ġdaisy": 4963,
      "Ġlicense": 4964,
      "avid": 4965,
      "uch": 4966,
      "Ġbeans": 4967,
      "ĠPoppy": 4968,
      "Ġsimp": 4969,
      "Ġport": 4970,
      "Ġrespons": 4971,
      "Ġpraised": 4972,
      "reat": 4973,
      "Ġchirping": 4974,
      "Ġhits": 4975,
      "ents": 4976,
      "Ġequ": 4977,
      "asp": 4978,
      "To": 4979,
      "Ġfastest": 4980,
      "Ġsuffer": 4981,
      "xture": 4982,
      "Ġbuzzing": 4983,
      "Ġpatiently": 4984,
      "Ġdresses": 4985,
      "Ġmention": 4986,
      "Ġbleed": 4987,
      "sity": 4988,
      "Ġrhy": 4989,
      "Ġautomobile": 4990,
      "nies": 4991,
      "Ġwiz": 4992,
      "Ġappreciate": 4993,
      "Ġpoppy": 4994,
      "Ġdestination": 4995,
      "Ġtaller": 4996,
      "Ġmall": 4997,
      "osed": 4998,
      "Ġhomes": 4999,
      "Ġnation": 5000,
      "ium": 5001,
      "Ġdigg": 5002,
      "Ġflav": 5003,
      "Ġclimbs": 5004,
      "Ġguy": 5005,
      "Ġwashing": 5006,
      "Ġpalm": 5007,
      "Ġglo": 5008,
      "Ġshot": 5009,
      "Ġlabel": 5010,
      "Ġbelieved": 5011,
      "Ġdigging": 5012,
      "Ġapproached": 5013,
      "Ġhesit": 5014,
      "fied": 5015,
      "Ġnone": 5016,
      "Ġtore": 5017,
      "Mmm": 5018,
      "Ġdeeper": 5019,
      "Ġwine": 5020,
      "Ġinfant": 5021,
      "ude": 5022,
      "Ġrestore": 5023,
      "Ġscore": 5024,
      "Ġhers": 5025,
      "Ġmitten": 5026,
      "Ġchamber": 5027,
      "Ġsausage": 5028,
      "rm": 5029,
      "Ġstruggling": 5030,
      "Ġheat": 5031,
      "Ġdifferen": 5032,
      "Ġtongue": 5033,
      "Ġhills": 5034,
      "Ġhurric": 5035,
      "Ġpunish": 5036,
      "Ġpillows": 5037,
      "ĠFrank": 5038,
      "Ġbillboard": 5039,
      "Ġsneezed": 5040,
      "ĠDavid": 5041,
      "Ġsport": 5042,
      "Ġwizard": 5043,
      "Ġupstairs": 5044,
      "Ġthrilled": 5045,
      "Ġprovide": 5046,
      "Ġbrain": 5047,
      "Ġawe": 5048,
      "Ġdiscuss": 5049,
      "ĠMat": 5050,
      "Ġpanic": 5051,
      "Ġwarning": 5052,
      "Ġtwisted": 5053,
      "Ġglowed": 5054,
      "Ġuniverse": 5055,
      "Ġfiref": 5056,
      "Ġtherm": 5057,
      "Ġvacation": 5058,
      "Ġworse": 5059,
      "Ġcrunch": 5060,
      "Jimmy": 5061,
      "Ġpoison": 5062,
      "Ġshed": 5063,
      "Ġsolved": 5064,
      "Ġparts": 5065,
      "osity": 5066,
      "bey": 5067,
      "Ġevent": 5068,
      "Ġsetting": 5069,
      "allen": 5070,
      "Ġtour": 5071,
      "Mummy": 5072,
      "Ġremained": 5073,
      "ĠSpike": 5074,
      "Ġairplane": 5075,
      "Ġhurricane": 5076,
      "Ġthermomet": 5077,
      "Ġplays": 5078,
      "Ġexamine": 5079,
      "Ġsparkles": 5080,
      "Ġshooting": 5081,
      "Ġinvit": 5082,
      "Ġneighborhood": 5083,
      "Ġsty": 5084,
      "Ġchores": 5085,
      "Ġoranges": 5086,
      "Ġfloated": 5087,
      "Ġranch": 5088,
      "Ġchallen": 5089,
      "thm": 5090,
      "Ġweeks": 5091,
      "Ġleak": 5092,
      "Ġuniversity": 5093,
      "ging": 5094,
      "shing": 5095,
      "Ġpaints": 5096,
      "Ġthermometer": 5097,
      "Ġbites": 5098,
      "Ġrepeat": 5099,
      "Ġbang": 5100,
      "adium": 5101,
      "Ġfloating": 5102,
      "Ġfixing": 5103,
      "Ġmeasured": 5104,
      "Ġstadium": 5105,
      "Ġgrinned": 5106,
      "!'": 5107,
      "These": 5108,
      "do": 5109,
      "Ġduring": 5110,
      "!\",": 5111,
      "Ġsurrounded": 5112,
      "Ġsupposed": 5113,
      "aspoon": 5114,
      "Ġconf": 5115,
      "Ġrhythm": 5116,
      "Ġmassage": 5117,
      "Ġbrings": 5118,
      "Ġpaused": 5119,
      "Ġcherry": 5120,
      "ĠCat": 5121,
      "Ġgifts": 5122,
      "Ġfut": 5123,
      "Ġsprinkles": 5124,
      "Ġfasc": 5125,
      "Sp": 5126,
      "Ġfuture": 5127,
      "Ġmemory": 5128,
      "ĠUnfortunately": 5129,
      "ÅĵIÃ¢": 5130,
      "Ġteaspoon": 5131,
      "Ġgrey": 5132,
      "rise": 5133,
      "Ġcollection": 5134,
      "Ġsigns": 5135,
      "Ġmarbles": 5136,
      "bbles": 5137,
      "Ġjazz": 5138,
      "Ġstomach": 5139,
      "Would": 5140,
      "emember": 5141,
      "ĠGood": 5142,
      "Ġgust": 5143,
      "Ġwisdom": 5144,
      "Ġactually": 5145,
      "Ġflood": 5146,
      "Ġdiscovery": 5147,
      "Ġinclud": 5148,
      "Ġsew": 5149,
      "Ġvehicle": 5150,
      "Ġtide": 5151,
      "Ġlily": 5152,
      "Ġgirls": 5153,
      "Ġsunrise": 5154,
      "ishing": 5155,
      "ĠZoe": 5156,
      "vet": 5157,
      "ÅĵThatÃ¢": 5158,
      "Ġmeowed": 5159,
      "anny": 5160,
      "ls": 5161,
      "Ġelephants": 5162,
      "Ġurge": 5163,
      "Ġexercise": 5164,
      "Ġmailman": 5165,
      "Ġlugg": 5166,
      "umble": 5167,
      "Ġdecision": 5168,
      "Ġrush": 5169,
      "Ġchewed": 5170,
      "ero": 5171,
      "Ġweapon": 5172,
      "Ġstrang": 5173,
      "Ġobserve": 5174,
      "Ġluggage": 5175,
      "Ġunite": 5176,
      "Ġcartoons": 5177,
      "Ġsore": 5178,
      "Ġfascin": 5179,
      "Ġtomatoes": 5180,
      "iers": 5181,
      "Ġscur": 5182,
      "ĠChr": 5183,
      "Ġpossible": 5184,
      "ĠRa": 5185,
      "Ġtoe": 5186,
      "allow": 5187,
      "cles": 5188,
      "Ġsunlight": 5189,
      "ities": 5190,
      "Ġfolded": 5191,
      "Ġcurled": 5192,
      "Ġchirped": 5193,
      "Ġrust": 5194,
      "Ġmelted": 5195,
      "Ġspill": 5196,
      "Ġcakes": 5197,
      "ĠBeth": 5198,
      "uing": 5199,
      "Ġsip": 5200,
      "Ġcollecting": 5201,
      "Ġx": 5202,
      "ĠQu": 5203,
      "Ġgrape": 5204,
      "son": 5205,
      "ĠSomeone": 5206,
      "Ġmineral": 5207,
      "Sh": 5208,
      "Ġdifference": 5209,
      "Ġproblems": 5210,
      "Ġbak": 5211,
      "Ġtracks": 5212,
      "Ġjogging": 5213,
      "ĠRemy": 5214,
      "Ġwherever": 5215,
      "Ġmountains": 5216,
      "ipment": 5217,
      "Ġbes": 5218,
      "eed": 5219,
      "Ready": 5220,
      "Ġsliding": 5221,
      "ĠSpark": 5222,
      "Ġmanage": 5223,
      "Ġequipment": 5224,
      "etch": 5225,
      "Ġlaid": 5226,
      "Not": 5227,
      "Ġlick": 5228,
      "Ġadmiring": 5229,
      "Ġwatered": 5230,
      "cious": 5231,
      "Ġsatis": 5232,
      "Ġcontain": 5233,
      "Ġoper": 5234,
      "Bob": 5235,
      "Ġbricks": 5236,
      "ĠJe": 5237,
      "oved": 5238,
      "Ġtwigs": 5239,
      "rr": 5240,
      "Ġpatterns": 5241,
      "Ġkindly": 5242,
      "Ġpetted": 5243,
      "ĠFro": 5244,
      "Ġskipping": 5245,
      "Ġpotatoes": 5246,
      "Ġseats": 5247,
      "bers": 5248,
      "Ġsoldiers": 5249,
      "Ġgloves": 5250,
      "Ġspaces": 5251,
      "zag": 5252,
      "joyed": 5253,
      "Ġreceive": 5254,
      "Ġkeeper": 5255,
      "Ġcopper": 5256,
      "Ġemer": 5257,
      "Ġslice": 5258,
      "ĠLuna": 5259,
      "Ġlets": 5260,
      "Ġgain": 5261,
      "ĠSund": 5262,
      "Ġcontinue": 5263,
      "Ġordered": 5264,
      "Ġstrangers": 5265,
      "walk": 5266,
      "ĠJan": 5267,
      "Ġoverjoyed": 5268,
      "ĠSunday": 5269,
      "Ġwatches": 5270,
      "Ġgotten": 5271,
      "Ġpigs": 5272,
      "omas": 5273,
      "Ġzipped": 5274,
      "ĠJam": 5275,
      "mother": 5276,
      "Ġlands": 5277,
      "Ġwhistling": 5278,
      "Ġgaz": 5279,
      "Ġbeside": 5280,
      "ÅĵThank": 5281,
      "Ġsafari": 5282,
      "Ġbeg": 5283,
      "Ġprayed": 5284,
      "Will": 5285,
      "Ġpeered": 5286,
      "Ġnetwork": 5287,
      "bbled": 5288,
      "Ġspit": 5289,
      "Ġeff": 5290,
      "Ġinvitation": 5291,
      "Ġmarching": 5292,
      "ĠMoral": 5293,
      "Ġours": 5294,
      "ases": 5295,
      "Ġglitter": 5296,
      "Ġwooden": 5297,
      "ĠNot": 5298,
      "Ġearthqu": 5299,
      "Ġsidewalk": 5300,
      "Ġeagle": 5301,
      "igzag": 5302,
      "Ġdoggy": 5303,
      "Ġdrinks": 5304,
      "Ġgrocery": 5305,
      "irp": 5306,
      "Ġweight": 5307,
      "Ġnavy": 5308,
      "Ġacorns": 5309,
      "Ġattached": 5310,
      "Al": 5311,
      "Ġraised": 5312,
      "Ġdisagreed": 5313,
      "Ġweren": 5314,
      "Yum": 5315,
      "ĠLetÃ¢": 5316,
      "loe": 5317,
      "Ġbeat": 5318,
      "Ġcompany": 5319,
      "ĠJulie": 5320,
      "Ġmister": 5321,
      "Ġburning": 5322,
      "fy": 5323,
      "Ġonwards": 5324,
      "hest": 5325,
      "\",": 5326,
      "Ġwre": 5327,
      "Ġhappiest": 5328,
      "ĠSuzy": 5329,
      "Ġracing": 5330,
      "Ġbrid": 5331,
      "ĠSunny": 5332,
      "Ġcrashed": 5333,
      "Ġspoons": 5334,
      "Ġfed": 5335,
      "Ġcrunchy": 5336,
      "ĠSharing": 5337,
      "ĠUncle": 5338,
      "Ġpeanuts": 5339,
      "Ġwhistled": 5340,
      "Ġprice": 5341,
      "ĠSure": 5342,
      "Jill": 5343,
      "seek": 5344,
      "ĠThomas": 5345,
      "Ġmeow": 5346,
      "Ġhurried": 5347,
      "Ġhist": 5348,
      "Ġofficer": 5349,
      "ĠKay": 5350,
      "Ouch": 5351,
      "Ġbrick": 5352,
      "ĠChloe": 5353,
      "Ġaccom": 5354,
      "Ġtremb": 5355,
      "Ġrefreshed": 5356,
      "Ġpies": 5357,
      "Ġremem": 5358,
      "Ġflap": 5359,
      "Ġworks": 5360,
      "Ġclearing": 5361,
      "nie": 5362,
      "Ġoperation": 5363,
      "Ġprepared": 5364,
      "Ġbowed": 5365,
      "Ġscratched": 5366,
      "Ġremembers": 5367,
      "Ġhistory": 5368,
      "Ġexa": 5369,
      "aded": 5370,
      "Ġlips": 5371,
      "amb": 5372,
      "Ġfireworks": 5373,
      "Ġprune": 5374,
      "ÅĵWe": 5375,
      "Really": 5376,
      "Ġescaped": 5377,
      "Ġdinosaurs": 5378,
      "Ġmenu": 5379,
      "Ġbridges": 5380,
      "Ġtalent": 5381,
      "Ġplanted": 5382,
      "ĠNut": 5383,
      "Ġbuildings": 5384,
      "ĠAd": 5385,
      "Ġrevealed": 5386,
      "Ġeasier": 5387,
      "Ġbye": 5388,
      "Ġturning": 5389,
      "Ġcomfy": 5390,
      "Ġscreams": 5391,
      "Ġolive": 5392,
      "Ġbrand": 5393,
      "Ġhated": 5394,
      "ĠPr": 5395,
      "Ġchat": 5396,
      "Ġselling": 5397,
      "Ġsnowball": 5398,
      "die": 5399,
      "Ġrecognized": 5400,
      "Ġwarn": 5401,
      "Ġaccompl": 5402,
      "ĠAm": 5403,
      "Ġcrept": 5404,
      "Ġprecious": 5405,
      "Ġlandsc": 5406,
      "ĠSadly": 5407,
      "Ġstrip": 5408,
      "Ġmuddy": 5409,
      "ĠJosh": 5410,
      "Ġpadd": 5411,
      "Ġwid": 5412,
      "ĠBy": 5413,
      "Ġdrinking": 5414,
      "Ġsings": 5415,
      "xygen": 5416,
      "Ġpupp": 5417,
      "Ġbeds": 5418,
      "ĠAn": 5419,
      "ĠChirp": 5420,
      "ecture": 5421,
      "Ġsettle": 5422,
      "Ġearthquake": 5423,
      "Ġsimple": 5424,
      "cc": 5425,
      "Ġeffort": 5426,
      "Ġreminder": 5427,
      "Ġspaceship": 5428,
      "Ġmeasuring": 5429,
      "Ġslip": 5430,
      "Ġperched": 5431,
      "Ġlecture": 5432,
      "Ġbones": 5433,
      "Ġserved": 5434,
      "Ġappear": 5435,
      "Ġwonders": 5436,
      "Ġshadows": 5437,
      "Ġwaits": 5438,
      "Ġvoices": 5439,
      "ÅĵCan": 5440,
      "Ġcuddle": 5441,
      "Ġeveryday": 5442,
      "Ġpedal": 5443,
      "Billy": 5444,
      "Ġpitch": 5445,
      "Ġcomforted": 5446,
      "Ġagreement": 5447,
      "Ġresponsible": 5448,
      "Ġcircus": 5449,
      "Ġrained": 5450,
      "Ġvel": 5451,
      "Ġobey": 5452,
      "ffic": 5453,
      "Ġvict": 5454,
      "Ġtip": 5455,
      "Ġsoared": 5456,
      "Ġallow": 5457,
      "Ġanytime": 5458,
      "Ġtrapped": 5459,
      "Ġcal": 5460,
      "Ġwhatever": 5461,
      "Ġzigzag": 5462,
      "Ġtastes": 5463,
      "ĠJamie": 5464,
      "Ġapologize": 5465,
      "Ġlandscape": 5466,
      "Ġcutting": 5467,
      "Ġsucceeded": 5468,
      "Ġshopping": 5469,
      "Ġrang": 5470,
      "Ġpets": 5471,
      "Ġsecrets": 5472,
      "ĠCla": 5473,
      "Ġvillag": 5474,
      "Ġvelvet": 5475,
      "Ġprinter": 5476,
      "Ġdisturbed": 5477,
      "ĠPip": 5478,
      "Ġwaist": 5479,
      "Ġitems": 5480,
      "Ġswims": 5481,
      "Ġbun": 5482,
      "ĠOl": 5483,
      "Ġtraffic": 5484,
      "Ġpracticing": 5485,
      "Ġsteel": 5486,
      "Ġbringing": 5487,
      "Ġoats": 5488,
      "Ġexactly": 5489,
      "Ġsisters": 5490,
      "Ġrested": 5491,
      "Ġvisiting": 5492,
      "Ġactiv": 5493,
      "Ġcostumes": 5494,
      "annah": 5495,
      "Ġscoop": 5496,
      "Ġanswers": 5497,
      "ĠLu": 5498,
      "izing": 5499,
      "Ġolives": 5500,
      "Daddy": 5501,
      "ien": 5502,
      "mble": 5503,
      "ĠAnne": 5504,
      "rs": 5505,
      "Ġbrushed": 5506,
      "Ġstyle": 5507,
      "Ġmouths": 5508,
      "Ġsoak": 5509,
      "Ġcuriosity": 5510,
      "ishes": 5511,
      "ĠFor": 5512,
      "Ġoutdo": 5513,
      "neath": 5514,
      "Ġbreaking": 5515,
      "Ġfashion": 5516,
      "Ġrele": 5517,
      "ĠNina": 5518,
      "Ġowned": 5519,
      "Ġladyb": 5520,
      "Ġencourage": 5521,
      "ÅĵDon": 5522,
      "ĠKe": 5523,
      "Ġknelt": 5524,
      "Ġfascinated": 5525,
      "ĠBig": 5526,
      "Ġleather": 5527,
      "mare": 5528,
      "Ġimage": 5529,
      "iggy": 5530,
      "Ġvillagers": 5531,
      "oming": 5532,
      "ĠRob": 5533,
      "Ġnails": 5534,
      "Ġbeneath": 5535,
      "icorn": 5536,
      "Ġunderground": 5537,
      "Ġwaffles": 5538,
      "ĠCoco": 5539,
      "Ġunicorn": 5540,
      "Ġsadness": 5541,
      "ĠThese": 5542,
      "enty": 5543,
      "ĠLucky": 5544,
      "ĠItÃ¢": 5545,
      "ĠFloppy": 5546,
      "terday": 5547,
      "Ġunlocked": 5548,
      "inda": 5549,
      "Ġdied": 5550,
      "Ġrecognize": 5551,
      "Ġdownstairs": 5552,
      "Ġcreation": 5553,
      "Ġcatching": 5554,
      "Ġgrandmother": 5555,
      "Ġoxygen": 5556,
      "isten": 5557,
      "Ġmonsters": 5558,
      "Ġtremble": 5559,
      "Ġchef": 5560,
      "Ġeats": 5561,
      "ĠMad": 5562,
      "ĠNutty": 5563,
      "Ġpupil": 5564,
      "ik": 5565,
      "Spot": 5566,
      "Ġwanting": 5567,
      "Ġnightmare": 5568,
      "Ġjogged": 5569,
      "Ġcape": 5570,
      "ĠGr": 5571,
      "Ġstripes": 5572,
      "Ġdoctors": 5573,
      "ĠRabbit": 5574,
      "ĠClaire": 5575,
      "Ġsoaring": 5576,
      "Ġblueberry": 5577,
      "ley": 5578,
      "ĠSomething": 5579,
      "Ġstruggled": 5580,
      "Ġlemons": 5581,
      "ĠOw": 5582,
      "Ġwondering": 5583,
      "Ġbleeding": 5584,
      "Ġpunished": 5585,
      "Ġgained": 5586,
      "She": 5587,
      "Ġfamil": 5588,
      "Ġfetch": 5589,
      "Ġexamined": 5590,
      "Ġnicer": 5591,
      "ĠHop": 5592,
      "Ġguessed": 5593,
      "Ġplanned": 5594,
      "Ġdrag": 5595,
      "Ġcaut": 5596,
      "Ġsitu": 5597,
      "Ġmachines": 5598,
      "Ġmission": 5599,
      "ĠTiny": 5600,
      "Ġstealing": 5601,
      "Ġargued": 5602,
      "Ġarea": 5603,
      "Ġcomple": 5604,
      "Ġpiles": 5605,
      "Ġsi": 5606,
      "Ġherbs": 5607,
      "Ġfreeze": 5608,
      "Ġintroduc": 5609,
      "len": 5610,
      "Ġstirring": 5611,
      "ĠLul": 5612,
      "Gra": 5613,
      "Ġripped": 5614,
      "Ġsix": 5615,
      "Ġchallenge": 5616,
      "Ġtugged": 5617,
      "ĠBetty": 5618,
      "Ġstudied": 5619,
      "Ġfiremen": 5620,
      "ĠTilly": 5621,
      "Ġbend": 5622,
      "Ġbare": 5623,
      "Ġwagging": 5624,
      "Ġzooming": 5625,
      "Ġaccidents": 5626,
      "Ġvictory": 5627,
      "Ġsatisfied": 5628,
      "Little": 5629,
      "ĠCarl": 5630,
      "Ġwreck": 5631,
      "Ġinstruct": 5632,
      "Ġproperly": 5633,
      "Ġkeys": 5634,
      "Ġwinning": 5635,
      "Ġshivering": 5636,
      "looking": 5637,
      "Ġbunnies": 5638,
      "Ġincrease": 5639,
      "agull": 5640,
      "ding": 5641,
      "Ġgathering": 5642,
      "Ġtune": 5643,
      "Or": 5644,
      "Ġmice": 5645,
      "Ġexit": 5646,
      "Ġfirefight": 5647,
      "Ġoutdoors": 5648,
      "Ġwinner": 5649,
      "Ġtwirling": 5650,
      "Ġslapped": 5651,
      "Ġloaded": 5652,
      "Ġteasing": 5653,
      "Ġpeel": 5654,
      "Ġdecorated": 5655,
      "xu": 5656,
      "Ġdeser": 5657,
      "Ġsupplies": 5658,
      "Ġyelling": 5659,
      "Ġune": 5660,
      "Ġneighbourhood": 5661,
      "Ġseagull": 5662,
      "Ġunderneath": 5663,
      "Ġpermit": 5664,
      "Ġsights": 5665,
      "Ġtickets": 5666,
      "Ġann": 5667,
      "ĠChirpy": 5668,
      "Ġpancakes": 5669,
      "ĠHannah": 5670,
      "ĠJessie": 5671,
      "oh": 5672,
      "Ġbegin": 5673,
      "Ġburrow": 5674,
      "Ġpearl": 5675,
      "Ġrides": 5676,
      "Ġsiren": 5677,
      "Ġpeaches": 5678,
      "ĠLulu": 5679,
      "Ġmixing": 5680,
      "ĠSl": 5681,
      "ĠCar": 5682,
      "Ġreleased": 5683,
      "Ġdraws": 5684,
      "Ġweighed": 5685,
      "aky": 5686,
      "Ġsneaked": 5687,
      "ĠMatt": 5688,
      "ica": 5689,
      "ĠAunt": 5690,
      "uxu": 5691,
      "indy": 5692,
      ".'": 5693,
      "Ġconfident": 5694,
      "Ġrealize": 5695,
      "Ġinstructions": 5696,
      "ĠBubbles": 5697,
      "ales": 5698,
      "Ġspiders": 5699,
      "ĠSusan": 5700,
      "Ġintroduce": 5701,
      "Ġluxu": 5702,
      "Ġdam": 5703,
      "Ġmuffins": 5704,
      "Ġcontro": 5705,
      "ĠletÃ¢": 5706,
      "Ġpinched": 5707,
      "Ġbudge": 5708,
      "Ġsolut": 5709,
      "ĠAdam": 5710,
      "Ġzero": 5711,
      "Ġcompetition": 5712,
      "ĠAbby": 5713,
      "Ġprinted": 5714,
      "Ġstudying": 5715,
      "Ġloving": 5716,
      "ĠDid": 5717,
      "ĠOut": 5718,
      "Ġbeha": 5719,
      "Ġinch": 5720,
      "Ġpockets": 5721,
      "Ġbaked": 5722,
      "Ġstruck": 5723,
      "ÅĵLook": 5724,
      "Ġshoulders": 5725,
      "Ġbunch": 5726,
      "Ġopin": 5727,
      "ĠLike": 5728,
      "Ġlines": 5729,
      "Ġfrosting": 5730,
      "Ġrelease": 5731,
      "Ġdecides": 5732,
      "Goodbye": 5733,
      "Ġgiggling": 5734,
      "Happy": 5735,
      "Ġbroom": 5736,
      "Ġourselves": 5737,
      "Ġweb": 5738,
      "Ġpastel": 5739,
      "Ġstamps": 5740,
      "Ġtravell": 5741,
      "Ġcones": 5742,
      "nes": 5743,
      "Ġemergen": 5744,
      "ÅĵHello": 5745,
      "Ġstair": 5746,
      "Ġstitch": 5747,
      "bbing": 5748,
      "ĠStop": 5749,
      "Ġprunes": 5750,
      "Ġladybug": 5751,
      "Ġsides": 5752,
      "ena": 5753,
      "oed": 5754,
      "Ġgrant": 5755,
      "Ġscurried": 5756,
      "Ġstrings": 5757,
      "âĤ¬âĢĿ": 5758,
      "Ġtim": 5759,
      "ais": 5760,
      "Ġmarks": 5761,
      "Ġruler": 5762,
      "Ġpears": 5763,
      "gers": 5764,
      "ednes": 5765,
      "ednesday": 5766,
      "Ġrepeated": 5767,
      "Ġdrift": 5768,
      "Ex": 5769,
      "Ġkeeps": 5770,
      "Ġago": 5771,
      "Ġclaps": 5772,
      "Ġpoking": 5773,
      "anta": 5774,
      "ÅĵThis": 5775,
      "Ye": 5776,
      "ays": 5777,
      "Ġcrowd": 5778,
      "Ġruin": 5779,
      "ĠBir": 5780,
      "Ġprints": 5781,
      "kins": 5782,
      "Ġbrushes": 5783,
      "Ġkicking": 5784,
      "Ġstretching": 5785,
      "Ġdemanded": 5786,
      "Ġsting": 5787,
      "Ġneighbors": 5788,
      "ĠWednesday": 5789,
      "Ġmentioned": 5790,
      "ĠMart": 5791,
      "ira": 5792,
      "Ġmast": 5793,
      "owers": 5794,
      "Ġtouching": 5795,
      "Ġtonight": 5796,
      "Ġprotected": 5797,
      "Ġwrites": 5798,
      "Ġsweeties": 5799,
      "ĠLou": 5800,
      "xp": 5801,
      "Ġgoodnight": 5802,
      "ĠZoom": 5803,
      "uesday": 5804,
      "Ġyouth": 5805,
      "Ġbuckets": 5806,
      "Ġribbons": 5807,
      "va": 5808,
      "jam": 5809,
      "uctantly": 5810,
      "tiest": 5811,
      "bies": 5812,
      "ashed": 5813,
      "Ġprettiest": 5814,
      "ody": 5815,
      "ĠSanta": 5816,
      "Ġforgi": 5817,
      "Ġvent": 5818,
      "Ġparked": 5819,
      "icky": 5820,
      "Ġproject": 5821,
      "Ġcamping": 5822,
      "Ġsoaked": 5823,
      "zie": 5824,
      "Ġbarely": 5825,
      "Ġhorns": 5826,
      "Ġbouncy": 5827,
      "ĠLinda": 5828,
      "icked": 5829,
      "ĠBoth": 5830,
      "riage": 5831,
      "ĠJu": 5832,
      "hins": 5833,
      "Ġdiscovering": 5834,
      "ĠTuesday": 5835,
      "ÅĵDonÃ¢": 5836,
      "Ġeast": 5837,
      "Ġtwinkling": 5838,
      "Ġresult": 5839,
      "Ġexpect": 5840,
      "Ġsurface": 5841,
      "Ġsorting": 5842,
      "Ġdent": 5843,
      "Ġstole": 5844,
      "ÅĵWhy": 5845,
      "Ġwest": 5846,
      "Ġinterest": 5847,
      "Ah": 5848,
      "Ġvowed": 5849,
      "Ġtexture": 5850,
      "ĠMomo": 5851,
      "Ġgazed": 5852,
      "Ġpurred": 5853,
      "Ġsteep": 5854,
      "Ġguys": 5855,
      "ĠAfterwards": 5856,
      "Ġbabies": 5857,
      "Ġshock": 5858,
      "Ġbeard": 5859,
      "Ġmovies": 5860,
      "Ġcautious": 5861,
      "xpected": 5862,
      "ĠKayla": 5863,
      "zen": 5864,
      "ĠJeff": 5865,
      "Ġpowers": 5866,
      "Ġapplauded": 5867,
      "Ġsilence": 5868,
      "ĠHoppy": 5869,
      "thank": 5870,
      "Ġpebbles": 5871,
      "Ġentire": 5872,
      "Ġloose": 5873,
      "Ġcontrol": 5874,
      "Ġtickle": 5875,
      "Ġguns": 5876,
      "Ġurged": 5877,
      "ĠLuke": 5878,
      "Ġdragons": 5879,
      "Ġacted": 5880,
      "Ġdragged": 5881,
      "Ġunexpected": 5882,
      "Ġluxury": 5883,
      "edding": 5884,
      "Ġcatches": 5885,
      "Uh": 5886,
      "ason": 5887,
      "ern": 5888,
      "Ġmittens": 5889,
      "Ġmuscles": 5890,
      "Ġchewing": 5891,
      "Ġrocking": 5892,
      "Ġflat": 5893,
      "Ġfab": 5894,
      "Ġdolphins": 5895,
      "Ġcompleted": 5896,
      "Ġfabric": 5897,
      "Ġcurtains": 5898,
      "Ġemergency": 5899,
      "Ġblink": 5900,
      "Ġintroduced": 5901,
      "une": 5902,
      "Ġdirection": 5903,
      "Ġchips": 5904,
      "Ġhonk": 5905,
      "Ġseason": 5906,
      "Ġpatience": 5907,
      "Ġstrike": 5908,
      "Ġimportance": 5909,
      "ĠLizzy": 5910,
      "eezing": 5911,
      "Ġreluctantly": 5912,
      "Ġbank": 5913,
      "Ġeight": 5914,
      "Ġslim": 5915,
      "usted": 5916,
      "Ġfigured": 5917,
      "Ġhighest": 5918,
      "Ġshivered": 5919,
      "ĠHa": 5920,
      "Ġfrozen": 5921,
      "Ġlibrarian": 5922,
      "Ġsolution": 5923,
      "Ġcontest": 5924,
      "Ġrocked": 5925,
      "Ġachieve": 5926,
      "Ġscreaming": 5927,
      "Ġchases": 5928,
      "Ġreplac": 5929,
      "Ġpouring": 5930,
      "ĠJenna": 5931,
      "Ġshelves": 5932,
      "Ġwound": 5933,
      "Ġtheirs": 5934,
      "Ġcrumb": 5935,
      "Ġrubbing": 5936,
      "esome": 5937,
      "Ġti": 5938,
      "Ġhugging": 5939,
      "Ġdrives": 5940,
      "Ġstaring": 5941,
      "Ġsorted": 5942,
      "Remember": 5943,
      "Ġsnail": 5944,
      "Ġroaring": 5945,
      "ÅĵOh": 5946,
      "ledge": 5947,
      "Ġinclude": 5948,
      "Ġplanets": 5949,
      "Somet": 5950,
      "Ġmater": 5951,
      "Ġmateri": 5952,
      "Ġsafer": 5953,
      "Ġpoliceman": 5954,
      "fit": 5955,
      "Ġcurly": 5956,
      "Ġsituation": 5957,
      "Ġfoods": 5958,
      "Ġgreet": 5959,
      "Ġawesome": 5960,
      "ĠcanÃ¢": 5961,
      "Ġusual": 5962,
      "vin": 5963,
      "Ġsighs": 5964,
      "Ġknowledge": 5965,
      "itely": 5966,
      "irts": 5967,
      "ĠYes": 5968,
      "Ġpassing": 5969,
      "Ġshined": 5970,
      "Ġflags": 5971,
      "Ġexha": 5972,
      "Ġdared": 5973,
      "Ġbalancing": 5974,
      "Ġplenty": 5975,
      "ĠSuzie": 5976,
      "ĠyouÃ¢": 5977,
      "Ġtru": 5978,
      "Ġmatched": 5979,
      "Ġtowels": 5980,
      "Ġlied": 5981,
      "ults": 5982,
      "Ġhomework": 5983,
      "Ġoutfit": 5984,
      "though": 5985,
      "Ġslimy": 5986,
      "Ġbravery": 5987,
      "ĠDolly": 5988,
      "Ġpretends": 5989,
      "Ġtruly": 5990,
      "ĠJac": 5991,
      "avi": 5992,
      "Ġzookeeper": 5993,
      "Ġcheering": 5994,
      "Ġheel": 5995,
      "Ġwedding": 5996,
      "Ġgoals": 5997,
      "Ġrainbows": 5998,
      "jamas": 5999,
      "Ġsausages": 6000,
      "Just": 6001,
      "ĠCindy": 6002,
      "cuse": 6003,
      "Ġthreat": 6004,
      "Today": 6005,
      "Ġaccomplish": 6006,
      "Ġpatted": 6007,
      "Ġcaused": 6008,
      "Ġpaintings": 6009,
      "Ġreaching": 6010,
      "ĠSlow": 6011,
      "Ġresting": 6012,
      "ĠAlways": 6013,
      "ĠPinky": 6014,
      "Ġradishes": 6015,
      "Ġarguing": 6016,
      "ĠQuack": 6017,
      "Ġpacking": 6018,
      "Excuse": 6019,
      "...": 6020,
      "bert": 6021,
      "Ġgrowling": 6022,
      "Ġspraying": 6023,
      "Ġblooming": 6024,
      "Ġwaiter": 6025,
      "Ġexhausted": 6026,
      "iar": 6027,
      "Ġge": 6028,
      "Ġstruggle": 6029,
      "izzie": 6030,
      "Ġsweets": 6031,
      "Ġsticking": 6032,
      "Ġpout": 6033,
      "ences": 6034,
      "Ġmarkers": 6035,
      "Ġmotion": 6036,
      "Ġworker": 6037,
      "Ġkneeled": 6038,
      "Ġpaddled": 6039,
      "Ġgrowl": 6040,
      "Ġsled": 6041,
      "immer": 6042,
      "Ġsuitc": 6043,
      "Ġmane": 6044,
      "When": 6045,
      "Ġsway": 6046,
      "Ġstartled": 6047,
      "ĠEx": 6048,
      "Ġsnugg": 6049,
      "Ġcubes": 6050,
      "Ġrescued": 6051,
      "Ġboo": 6052,
      "Ġspike": 6053,
      "Ġwritten": 6054,
      "Ġdusty": 6055,
      "Ġtraveled": 6056,
      "Ġinviting": 6057,
      "hello": 6058,
      "ĠJon": 6059,
      "Ġexpected": 6060,
      "ĠJacob": 6061,
      "Ġbead": 6062,
      "Ġslap": 6063,
      "Ġcuts": 6064,
      "Ġcent": 6065,
      "Ġbottles": 6066,
      "Ġmatching": 6067,
      "ĠTara": 6068,
      "Ġguest": 6069,
      "Ġsinger": 6070,
      "Ġflavor": 6071,
      "ĠMon": 6072,
      "Ġreveal": 6073,
      "Ġlearns": 6074,
      "Ġheav": 6075,
      "lee": 6076,
      "Ġprincesses": 6077,
      "Ġcreating": 6078,
      "Ġregretted": 6079,
      "Ġfart": 6080,
      "Ġbloomed": 6081,
      "Yeah": 6082,
      "Ġtrembling": 6083,
      "Ġreplaced": 6084,
      "Ġfir": 6085,
      "Ġarrive": 6086,
      "Ġmarriage": 6087,
      "ĠMick": 6088,
      "ĠJulia": 6089,
      "pite": 6090,
      "you": 6091,
      "Ġrecorded": 6092,
      "aisies": 6093,
      "ĠLizzie": 6094,
      "Ġpencils": 6095,
      "Ġincluded": 6096,
      "Ġlap": 6097,
      "Ġchuck": 6098,
      "Ġobserved": 6099,
      "Ġdisagree": 6100,
      "njoy": 6101,
      "ĠLena": 6102,
      "ĠJessica": 6103,
      "Ġdaisies": 6104,
      "Ġpots": 6105,
      "Ġactivities": 6106,
      "Ġprayer": 6107,
      "Ġfirm": 6108,
      "Ġtimer": 6109,
      "ĠPipp": 6110,
      "Ġpajamas": 6111,
      "Ġroads": 6112,
      "ĠMil": 6113,
      "Ġwires": 6114,
      "Ch": 6115,
      "Ġremoved": 6116,
      "Ġdarkness": 6117,
      "Ġworries": 6118,
      "Ġuses": 6119,
      "Ġventured": 6120,
      "Ġcountryside": 6121,
      "Ġorganizing": 6122,
      "Ġstare": 6123,
      "Ġcompletely": 6124,
      "Ġworkers": 6125,
      "Ġopening": 6126,
      "Ġfairies": 6127,
      "Ġrelief": 6128,
      "Ġwasted": 6129,
      "angled": 6130,
      "Ġleap": 6131,
      "Ġreply": 6132,
      "Ġowners": 6133,
      "ĠMo": 6134,
      "Ġstorekeeper": 6135,
      "Ġcott": 6136,
      "Ġbelly": 6137,
      "vers": 6138,
      "Ġranger": 6139,
      "Ġfault": 6140,
      "ĠJohnson": 6141,
      "ĠFox": 6142,
      "Ġpartic": 6143,
      "Ġunf": 6144,
      "Ġquacked": 6145,
      "Ġpolishing": 6146,
      "Ġleader": 6147,
      "Ġstern": 6148,
      "ora": 6149,
      "iding": 6150,
      "ĠFriend": 6151,
      "Ġbecoming": 6152,
      "Ġflames": 6153,
      "Ġlamb": 6154,
      "Ġkites": 6155,
      "ctions": 6156,
      "Ġagrees": 6157,
      "ĠSlowly": 6158,
      "Ġpoems": 6159,
      "Ġpenguins": 6160,
      "ĠwasnÃ¢": 6161,
      "ĠMel": 6162,
      "Ġfaced": 6163,
      "ĠChrist": 6164,
      "Sometimes": 6165,
      "Ġeverybody": 6166,
      "Ġseesaw": 6167,
      "ĠY": 6168,
      "Ġfolding": 6169,
      "Ġmelting": 6170,
      "Ġscales": 6171,
      "Ġsquealed": 6172,
      "Ġthro": 6173,
      "Ġhealed": 6174,
      "Ġvanish": 6175,
      "Ġhelmets": 6176,
      "ĠJones": 6177,
      "Ġwink": 6178,
      "Ġlogs": 6179,
      "ords": 6180,
      "Ġcrabs": 6181,
      "Ġthroat": 6182,
      "hell": 6183,
      "ĠLeave": 6184,
      "Ġusually": 6185,
      "Ġopinion": 6186,
      "Ġcrumbs": 6187,
      "Ġtractor": 6188,
      "Ro": 6189,
      "Ġripe": 6190,
      "Ġdipped": 6191,
      "opes": 6192,
      "lings": 6193,
      "ĠFollow": 6194,
      "Ġscra": 6195,
      "ĠTwo": 6196,
      "Ġseems": 6197,
      "Ġast": 6198,
      "Ġlollipops": 6199,
      "Ġtwinkle": 6200,
      "Ġcash": 6201,
      "Ġrisk": 6202,
      "Ġteaches": 6203,
      "ĠBye": 6204,
      "Ġcomm": 6205,
      "Ġgroceries": 6206,
      "ĠMira": 6207,
      "Ġden": 6208,
      "Ġknights": 6209,
      "ivery": 6210,
      "asm": 6211,
      "Ġprovided": 6212,
      "Ġdentist": 6213,
      "Ġpolished": 6214,
      "Ġvalued": 6215,
      "Ġstaying": 6216,
      "ids": 6217,
      "elle": 6218,
      "Ġpeeking": 6219,
      "aze": 6220,
      "Ġsnakes": 6221,
      "Ġscru": 6222,
      "Ġinterested": 6223,
      "ĠWatch": 6224,
      "Ġblows": 6225,
      "Ġrubs": 6226,
      "Ġcautiously": 6227,
      "ĠPut": 6228,
      "Ġcracked": 6229,
      "Ġrings": 6230,
      "Ġunited": 6231,
      "araway": 6232,
      "Ġfaraway": 6233,
      "Ġdesert": 6234,
      "ĠSorry": 6235,
      "Ġwinked": 6236,
      "Ġmisses": 6237,
      "Ġprotecting": 6238,
      "Ġfreed": 6239,
      "Ġmarked": 6240,
      "ĠBird": 6241,
      "Ġyounger": 6242,
      "Ġwrist": 6243,
      "Ġcloses": 6244,
      "Ġwandering": 6245,
      "mas": 6246,
      "Ġbalanced": 6247,
      "Ġchuckled": 6248,
      "ĠMany": 6249,
      "Ġfuzzy": 6250,
      "ĠLarry": 6251,
      "Ġforehead": 6252,
      "Ġlistens": 6253,
      "Ġpastries": 6254,
      "Ġsingle": 6255,
      "Ġsigned": 6256,
      "go": 6257,
      "ĠNan": 6258,
      "Ġrobb": 6259,
      "Ġbeads": 6260,
      "Ġparticular": 6261,
      "Ġroses": 6262,
      "boo": 6263,
      "ĠJune": 6264,
      "Ġboom": 6265,
      "ĠDoggy": 6266,
      "Ġactions": 6267,
      "ĠLau": 6268,
      "Ġdirections": 6269,
      "Ġhowever": 6270,
      "ÅĵMommy": 6271,
      "Ġcopy": 6272,
      "igi": 6273,
      "Ġcough": 6274,
      "Ġsplashes": 6275,
      "rance": 6276,
      "Ġcrackers": 6277,
      "ĠBess": 6278,
      "Ġbaker": 6279,
      "Ġnaps": 6280,
      "Ġcous": 6281,
      "ĠSophia": 6282,
      "hile": 6283,
      "ppers": 6284,
      "Ġroots": 6285,
      "Ġfilling": 6286,
      "ĠWithout": 6287,
      "Ġyesterday": 6288,
      "Ġsnowballs": 6289,
      "ĠPrin": 6290,
      "ÅĵWhatÃ¢": 6291,
      "Ġrestored": 6292,
      "ĠEl": 6293,
      "Ġfluttered": 6294,
      "Ġdelivery": 6295,
      "Ġrolls": 6296,
      "ĠHappy": 6297,
      "abel": 6298,
      "arling": 6299,
      "Ġstem": 6300,
      "Ġconn": 6301,
      "Ġswooped": 6302,
      "dies": 6303,
      "Ġgaze": 6304,
      "Ġsuitcase": 6305,
      "Ġwiggled": 6306,
      "Ġtipt": 6307,
      "ĠAbbie": 6308,
      "Ġsomebody": 6309,
      "Ġsweat": 6310,
      "ĠChristmas": 6311,
      "Bad": 6312,
      "Ġbumpy": 6313,
      "Ġitchy": 6314,
      "bbly": 6315,
      "Ġrefle": 6316,
      "Ġswirl": 6317,
      "Ġslam": 6318,
      "Ëľ": 6319,
      "Ġphotos": 6320,
      "âĤ¬Ëľ": 6321,
      "ĠEverybody": 6322,
      "oline": 6323,
      "Ġstroll": 6324,
      "Then": 6325,
      "Ġtwin": 6326,
      "Ġpastels": 6327,
      "Ġcelebration": 6328,
      "Ġtrips": 6329,
      "Ġpedals": 6330,
      "ĠGigi": 6331,
      "Ġbacked": 6332,
      "Ġtallest": 6333,
      "ĠKeep": 6334,
      "Ġawake": 6335,
      "ĠNothing": 6336,
      "Ġfroze": 6337,
      "Ġcause": 6338,
      "Ġcashier": 6339,
      "ddled": 6340,
      "ĠMickey": 6341,
      "Ġnect": 6342,
      "Ġremote": 6343,
      "Ġlined": 6344,
      "Ġdarker": 6345,
      "Ġdetermination": 6346,
      "Ġnectar": 6347,
      "ility": 6348,
      "ĠLaura": 6349,
      "Ġspeaking": 6350,
      "Ġsecure": 6351,
      "ormed": 6352,
      "ĠSparky": 6353,
      "Ġknees": 6354,
      "Ġwow": 6355,
      "Ġpiggy": 6356,
      "anes": 6357,
      "Ġcomplaining": 6358,
      "ĠSque": 6359,
      "Ġbars": 6360,
      "ĠBeing": 6361,
      "Ġrecording": 6362,
      "Ġsneaky": 6363,
      "Ġsilent": 6364,
      "Ġvideos": 6365,
      "ĠPandy": 6366,
      "Run": 6367,
      "oys": 6368,
      "Ġhealth": 6369,
      "Ġaccomplishment": 6370,
      "Ġliqu": 6371,
      "Ġpleasure": 6372,
      "Ġacting": 6373,
      "?\",": 6374,
      "ĠExc": 6375,
      "Ġentrance": 6376,
      "Ġty": 6377,
      "atches": 6378,
      "Ġwears": 6379,
      "Ġrockets": 6380,
      "Ġdelivered": 6381,
      "Ġmiles": 6382,
      "Ġglee": 6383,
      "Ġinsp": 6384,
      "Ġhi": 6385,
      "esmer": 6386,
      "Ġcoloured": 6387,
      "ĠNick": 6388,
      "Ġopp": 6389,
      "ĠEnjoy": 6390,
      "Ġtricked": 6391,
      "Ġmesmer": 6392,
      "ĠPam": 6393,
      "sequ": 6394,
      "boat": 6395,
      "ĠEmmy": 6396,
      "Ġcheeks": 6397,
      "yond": 6398,
      "Ġaff": 6399,
      "Ġbeyond": 6400,
      "ĠJazz": 6401,
      "Ġafterwards": 6402,
      "Ġnoon": 6403,
      "Ġsib": 6404,
      "Ġconsequ": 6405,
      "Ġhissed": 6406,
      "Ġstays": 6407,
      "Ġinsects": 6408,
      "Ġglasses": 6409,
      "ky": 6410,
      "Ġbowls": 6411,
      "umm": 6412,
      "Ġjoking": 6413,
      "ĠExcited": 6414,
      "Ġsobbed": 6415,
      "Ġtickled": 6416,
      "Ġfarther": 6417,
      "Ġcolored": 6418,
      "Ġburst": 6419,
      "affes": 6420,
      "ĠJay": 6421,
      "Ġscaring": 6422,
      "ĠDays": 6423,
      "Ġstolen": 6424,
      "ĠStella": 6425,
      "Fine": 6426,
      "Ġattack": 6427,
      "ĠBuzzy": 6428,
      "Ġsense": 6429,
      "Ġsandcastles": 6430,
      "Ġtricky": 6431,
      "Grandma": 6432,
      "Ġrule": 6433,
      "Ġmasks": 6434,
      "Ġcovers": 6435,
      "iki": 6436,
      "ĠMa": 6437,
      "Ġdeal": 6438,
      "Ġgiraffes": 6439,
      "Ġinstrum": 6440,
      "ÅĵCome": 6441,
      "Ġcalmed": 6442,
      "Ġhandful": 6443,
      "?'": 6444,
      "arter": 6445,
      "Ġtalented": 6446,
      "ĠSqu": 6447,
      "Ġpause": 6448,
      "Ġtangled": 6449,
      "Ġindeed": 6450,
      "aren": 6451,
      "Ġadding": 6452,
      "Ġsmarter": 6453,
      "Ġscarves": 6454,
      "Ġcandies": 6455,
      "ths": 6456,
      "Ġlung": 6457,
      "Ġshirts": 6458,
      "Ġachieved": 6459,
      "Ġchoices": 6460,
      "Ġconsequences": 6461,
      "Ġliquid": 6462,
      "ossible": 6463,
      "Ġyourselves": 6464,
      "ĠPrincess": 6465,
      "rious": 6466,
      "weet": 6467,
      "Ġbehavi": 6468,
      "Ġleading": 6469,
      "Ġbumps": 6470,
      "Ġreads": 6471,
      "Ġbatteries": 6472,
      "igers": 6473,
      "choo": 6474,
      "Ġhesitated": 6475,
      "Ġimpossible": 6476,
      "Ġbadge": 6477,
      "ept": 6478,
      "Ġmi": 6479,
      "ĠEls": 6480,
      "Ġpaddle": 6481,
      "Ġmixture": 6482,
      "ĠRobert": 6483,
      "ĠGet": 6484,
      "ĠMaya": 6485,
      "Ġexplorers": 6486,
      "Ġdarling": 6487,
      "iled": 6488,
      "Ġmagnets": 6489,
      "ouch": 6490,
      "Ġclowns": 6491,
      "Ġkicks": 6492,
      "Ġrecommended": 6493,
      "Shh": 6494,
      "ĠChris": 6495,
      "ĠSnugg": 6496,
      "Ġweeping": 6497,
      "Ġgracefully": 6498,
      "ĠMilo": 6499,
      "ners": 6500,
      "Ġexperien": 6501,
      "ĠTess": 6502,
      "ĠBee": 6503,
      "Ġseashell": 6504,
      "Ġseeker": 6505,
      "Ġbakery": 6506,
      "Ġfirefighters": 6507,
      "ĠMikey": 6508,
      "anging": 6509,
      "ĠOlive": 6510,
      "ĠZip": 6511,
      "Ġsalty": 6512,
      "vest": 6513,
      "brush": 6514,
      "Ġimproved": 6515,
      "ĠRy": 6516,
      "Ġswept": 6517,
      "rig": 6518,
      "atul": 6519,
      "coat": 6520,
      "Ġdeserve": 6521,
      "Ġstroked": 6522,
      "ĠRobby": 6523,
      "Ġflapping": 6524,
      "Ġwipes": 6525,
      "Ġbeginning": 6526,
      "Ġcomplained": 6527,
      "Ġmushrooms": 6528,
      "Whe": 6529,
      "urry": 6530,
      "Those": 6531,
      "ĠPl": 6532,
      "Ġhider": 6533,
      "obody": 6534,
      "itches": 6535,
      "ĠPo": 6536,
      "Ġsteer": 6537,
      "Ġknocks": 6538,
      "Ġcust": 6539,
      "Ġthorn": 6540,
      "Ġseven": 6541,
      "Ġcans": 6542,
      "Ġteased": 6543,
      "ĠSnuggles": 6544,
      "Ġobjects": 6545,
      "Ġparties": 6546,
      "ÅĵDo": 6547,
      "ĠMartha": 6548,
      "Ġtravelled": 6549,
      "Ġthird": 6550,
      "ĠCu": 6551,
      "Ġhearing": 6552,
      "ĠGranny": 6553,
      "Ġbasement": 6554,
      "Ġtigers": 6555,
      "Ġcupcakes": 6556,
      "iles": 6557,
      "Ġhoriz": 6558,
      "Ġclick": 6559,
      "ÅĵYouÃ¢": 6560,
      "Ġfever": 6561,
      "ĠDr": 6562,
      "Ġsnuck": 6563,
      "Ġheading": 6564,
      "tle": 6565,
      "Ġseconds": 6566,
      "Ġdots": 6567,
      "ĠRock": 6568,
      "Ġraincoat": 6569,
      "ĠAbi": 6570,
      "Ġsiblings": 6571,
      "Ġhorizon": 6572,
      "elia": 6573,
      "no": 6574,
      "Ġsmiley": 6575,
      "Ġperformance": 6576,
      "Ġcustom": 6577,
      "Ġartist": 6578,
      "Ġhallway": 6579,
      "Ġbeam": 6580,
      "Ġmarker": 6581,
      "Ġsnatched": 6582,
      "Ġlighter": 6583,
      "ĠThanks": 6584,
      "Ġyells": 6585,
      "Ġjackets": 6586,
      "Ġdrums": 6587,
      "Ġfluttering": 6588,
      "indr": 6589,
      "ÅĵHi": 6590,
      "ĠRyan": 6591,
      "step": 6592,
      "ĠSc": 6593,
      "pare": 6594,
      "ans": 6595,
      "Ġruining": 6596,
      "Ġgems": 6597,
      "Next": 6598,
      "Ġbedtime": 6599,
      "igning": 6600,
      "ĠWater": 6601,
      "ĠwouldnÃ¢": 6602,
      "Ġraindr": 6603,
      "Ġwee": 6604,
      "Ġneither": 6605,
      "ĠChe": 6606,
      "Ġconcer": 6607,
      "Ġbuying": 6608,
      "ĠAlong": 6609,
      "rigued": 6610,
      "Ġpuppies": 6611,
      "Ġlett": 6612,
      "Ġpaying": 6613,
      "Ġscrubbed": 6614,
      "Ġcelebrating": 6615,
      "Ġfamilies": 6616,
      "Ġdollhouse": 6617,
      "Ġannoy": 6618,
      "ÅĵWow": 6619,
      "Ġcreamy": 6620,
      "Ġlettuce": 6621,
      "band": 6622,
      "Ġamong": 6623,
      "umbling": 6624,
      "Ġpeacefully": 6625,
      "Ġrivers": 6626,
      "Ġscratches": 6627,
      "Ġwrapping": 6628,
      "river": 6629,
      "Ġwidened": 6630,
      "Ġdrifted": 6631,
      "Ġrumble": 6632,
      "Ġtasks": 6633,
      "atur": 6634,
      "ivity": 6635,
      "ades": 6636,
      "Ġtreehouse": 6637,
      "Ġhides": 6638,
      "Ġwins": 6639,
      "ĠFinn": 6640,
      "Ġrepa": 6641,
      "Ġbehaved": 6642,
      "cers": 6643,
      "Ġrusty": 6644,
      "alph": 6645,
      "Ġplayers": 6646,
      "ĠwonÃ¢": 6647,
      "Ġlun": 6648,
      "ĠKaren": 6649,
      "uzz": 6650,
      "Ġcuddly": 6651,
      "immering": 6652,
      "ael": 6653,
      "fall": 6654,
      "Ġuns": 6655,
      "Ġfact": 6656,
      "ounce": 6657,
      "Ġarrows": 6658,
      "Ġrewarded": 6659,
      "Ġwilling": 6660,
      "Ġlower": 6661,
      "ĠJacky": 6662,
      "Lucy": 6663,
      "Ġneedles": 6664,
      "Ġsource": 6665,
      "Ġcreativity": 6666,
      "Ġshrinking": 6667,
      "ĠRover": 6668,
      "Ġcor": 6669,
      "Ġlosing": 6670,
      "Ġtemper": 6671,
      "Ġech": 6672,
      "ĠMabel": 6673,
      "Ġrepaired": 6674,
      "Ġpassen": 6675,
      "Ġfears": 6676,
      "iece": 6677,
      "Ġgrandpare": 6678,
      "Ġincluding": 6679,
      "ĠBinky": 6680,
      "Ġchoo": 6681,
      "Ġtiptoed": 6682,
      "itched": 6683,
      "Ġcreations": 6684,
      "Ġtapped": 6685,
      "ĠGoodbye": 6686,
      "Ġgrassy": 6687,
      "Ġchefs": 6688,
      "ongr": 6689,
      "Ġdef": 6690,
      "ĠJanie": 6691,
      "ĠSim": 6692,
      "ded": 6693,
      "Le": 6694,
      "Ġminerals": 6695,
      "Ġseparated": 6696,
      "Ġsprinkled": 6697,
      "jo": 6698,
      "Ġrising": 6699,
      "Ġimagining": 6700,
      "Ġgranted": 6701,
      "ichael": 6702,
      "Ġchop": 6703,
      "Ġaud": 6704,
      "Ġgross": 6705,
      "Ġtempt": 6706,
      "Ġaren": 6707,
      "ĠDuring": 6708,
      "ĠRobbie": 6709,
      "ĠKiki": 6710,
      "Ġswimsuit": 6711,
      "ongratul": 6712,
      "Great": 6713,
      "Ġtiss": 6714,
      "ĠRemember": 6715,
      "Ġpans": 6716,
      "Ġlimes": 6717,
      "ĠSadie": 6718,
      "cus": 6719,
      "hog": 6720,
      "Ġstomped": 6721,
      "Ġscrewd": 6722,
      "Ġcoup": 6723,
      "Ġgrabbing": 6724,
      "ĠNobody": 6725,
      "Ġpouted": 6726,
      "Ġbackwards": 6727,
      "Ġspong": 6728,
      "itude": 6729,
      "Ġdecorating": 6730,
      "ÅĵMy": 6731,
      "Ġdamage": 6732,
      "ishy": 6733,
      "Ġhesitant": 6734,
      "Ġearn": 6735,
      "Ġprinting": 6736,
      "Ġpeppers": 6737,
      "Ġstung": 6738,
      "Have": 6739,
      "Ġsquares": 6740,
      "Ġunpacked": 6741,
      "ments": 6742,
      "cl": 6743,
      "Ġtramp": 6744,
      "Time": 6745,
      "ntil": 6746,
      "Ġslower": 6747,
      "Ġcowb": 6748,
      "Ġdiving": 6749,
      "Ġplanning": 6750,
      "Ġbeloved": 6751,
      "Ġonions": 6752,
      "pr": 6753,
      "Ġmaterials": 6754,
      "ĠJudy": 6755,
      "Ġheavier": 6756,
      "ĠQ": 6757,
      "Ġchip": 6758,
      "Ġgrowls": 6759,
      "Ġraindrops": 6760,
      "ĠCra": 6761,
      "Ġwrink": 6762,
      "Ġmer": 6763,
      "ĠUntil": 6764,
      "ĠMarie": 6765,
      "Ġpointy": 6766,
      "ĠSqueaky": 6767,
      "Ġsnowmen": 6768,
      "ĠBluey": 6769,
      "cope": 6770,
      "Ġsurroundings": 6771,
      "Ġpromises": 6772,
      "ĠFlop": 6773,
      "Ġavoid": 6774,
      "Ġscrewdriver": 6775,
      "ĠSince": 6776,
      "Ġrecipe": 6777,
      "Ġaudience": 6778,
      "Ġsailboat": 6779,
      "Ġcousin": 6780,
      "Meow": 6781,
      "Ġrustling": 6782,
      "Ġforgiven": 6783,
      "Ġneighbours": 6784,
      "Yummy": 6785,
      "Ġblocking": 6786,
      "Ġhus": 6787,
      "Ġcenter": 6788,
      "kend": 6789,
      "ĠMichael": 6790,
      "Ġslices": 6791,
      "Ġgobbled": 6792,
      "Ġwiping": 6793,
      "Sammy": 6794,
      "Ġweekend": 6795,
      "Ġtemperature": 6796,
      "eds": 6797,
      "Ġtouc": 6798,
      "Ġhedgehog": 6799,
      "Ġtrampoline": 6800,
      "ĠEarth": 6801,
      "ueen": 6802,
      "Ġrefu": 6803,
      "Ġarr": 6804,
      "Ġhelpers": 6805,
      "Ġwobbled": 6806,
      "ably": 6807,
      "Ġrip": 6808,
      "Ġwindy": 6809,
      "yes": 6810,
      "Ġcouple": 6811,
      "Ġstool": 6812,
      "Ġdiscussed": 6813,
      "sty": 6814,
      "Ġdesigned": 6815,
      "Ġornaments": 6816,
      "Ġdreamt": 6817,
      "Oops": 6818,
      "itted": 6819,
      "Ġnoses": 6820,
      "Ġcorners": 6821,
      "ne": 6822,
      "ĠMaddie": 6823,
      "ĠTodd": 6824,
      "ĠSimon": 6825,
      "child": 6826,
      "Ġpecked": 6827,
      "Ġslammed": 6828,
      "int": 6829,
      "unched": 6830,
      "Ġswans": 6831,
      "Ġafford": 6832,
      "iley": 6833,
      "ĠGina": 6834,
      "Rex": 6835,
      "Ew": 6836,
      "Ġfeast": 6837,
      "Ġsports": 6838,
      "Ġhitting": 6839,
      "oey": 6840,
      "Ġage": 6841,
      "Roar": 6842,
      "Ġstreets": 6843,
      "Ġwag": 6844,
      "Ġtissue": 6845,
      "ĠFar": 6846,
      "Ġdads": 6847,
      "Ġache": 6848,
      "Ġaside": 6849,
      "ĠJackie": 6850,
      "ccoon": 6851,
      "Ġraccoon": 6852,
      "Ġsponge": 6853,
      "Ġstain": 6854,
      "Ġrequested": 6855,
      "ĠBack": 6856,
      "Ġmeals": 6857,
      "Ġcuriously": 6858,
      "Ġforks": 6859,
      "Jenny": 6860,
      "Ġsunflowers": 6861,
      "Ġreflection": 6862,
      "Ġsnowfl": 6863,
      "Ġwarnings": 6864,
      "Ġtails": 6865,
      "arrow": 6866,
      "ĠRalph": 6867,
      "ĠZoey": 6868,
      "Ġdances": 6869,
      "Ġprett": 6870,
      "Ġplans": 6871,
      "Ġbows": 6872,
      "ido": 6873,
      "Ġvanilla": 6874,
      "cky": 6875,
      "Ġshaped": 6876,
      "Ġfamiliar": 6877,
      "ĠQueen": 6878,
      "Ġsparks": 6879,
      "Ġdet": 6880,
      "ĠAlthough": 6881,
      "Ġgri": 6882,
      "Ġleaning": 6883,
      "Ġdollars": 6884,
      "Jane": 6885,
      "ĠThose": 6886,
      "Ġcoloring": 6887,
      "Ġremembering": 6888,
      "Ġadult": 6889,
      "Ġbreathed": 6890,
      "Ġintrigued": 6891,
      "Ġgreeted": 6892,
      "Ġsale": 6893,
      "Ġscrews": 6894,
      "Ġgrandchild": 6895,
      "ition": 6896,
      "Ġduckling": 6897,
      "Ġforgets": 6898,
      "Ġspreading": 6899,
      "osen": 6900,
      "Ġgasp": 6901,
      "Ġchosen": 6902,
      "ĠZara": 6903,
      "Ġastron": 6904,
      "Ġthrown": 6905,
      "Ġshops": 6906,
      "Ġprettier": 6907,
      "Ġtwice": 6908,
      "Ġpraying": 6909,
      "ĠHoot": 6910,
      "Ġtunnels": 6911,
      "ĠAsh": 6912,
      "Ġhour": 6913,
      "aker": 6914,
      "Ġpotion": 6915,
      "--": 6916,
      "Ġenthusi": 6917,
      "Ġtouches": 6918,
      "Ġastronaut": 6919,
      "Ġswords": 6920,
      "Ġenthusiasm": 6921,
      "Ġhusband": 6922,
      "arac": 6923,
      "Ġsailors": 6924,
      "ertain": 6925,
      "ĠOur": 6926,
      "Ġgardener": 6927,
      "otten": 6928,
      "Ġmoo": 6929,
      "endy": 6930,
      "Ġhops": 6931,
      "Ġzipping": 6932,
      "Ġspikes": 6933,
      "Ġsuperheroes": 6934,
      "Ġcorre": 6935,
      "Ġreason": 6936,
      "Ġmagician": 6937,
      "Ġwishing": 6938,
      "Ġdaring": 6939,
      "Ġspoonful": 6940,
      "Ġgrandparents": 6941,
      "ĠFu": 6942,
      "mallow": 6943,
      "Ġleast": 6944,
      "Ġmarsh": 6945,
      "shions": 6946,
      "Ġskunk": 6947,
      "ĠAmelia": 6948,
      "Ġreass": 6949,
      "Ġchanging": 6950,
      "ĠFriends": 6951,
      "Ġdod": 6952,
      "ĠFido": 6953,
      "Ġborrowed": 6954,
      "Ġtodd": 6955,
      "Ġscamp": 6956,
      "Ġcounts": 6957,
      "Ġpens": 6958,
      "Ġflight": 6959,
      "Ġforgetting": 6960,
      "Ġrotten": 6961,
      "Alice": 6962,
      "Ġbodies": 6963,
      "Ġencourag": 6964,
      "Ġflavors": 6965,
      "Ġguests": 6966,
      "Woof": 6967,
      "Ġhopeful": 6968,
      "ently": 6969,
      "Ġneare": 6970,
      "ĠStar": 6971,
      "Ġwoof": 6972,
      "ounced": 6973,
[...]
